unsigned char _content_midterm_model_model_tflite[] = {
  0x08, 0x00, 0x00, 0x00, 0x54, 0x46, 0x4c, 0x33, 0x62, 0xff, 0xff, 0xff,
  0x03, 0x00, 0x00, 0x00, 0x10, 0x00, 0x00, 0x00, 0x24, 0x00, 0x00, 0x00,
  0x78, 0x00, 0x00, 0x00, 0x24, 0x00, 0x00, 0x00, 0x05, 0x00, 0x00, 0x00,
  0x78, 0x05, 0x00, 0x00, 0xb0, 0x04, 0x00, 0x00, 0xe0, 0x02, 0x00, 0x00,
  0x60, 0x02, 0x00, 0x00, 0x54, 0x01, 0x00, 0x00, 0x01, 0x00, 0x00, 0x00,
  0x78, 0x00, 0x00, 0x00, 0x13, 0x00, 0x00, 0x00, 0xd4, 0x2f, 0x00, 0x00,
  0xd0, 0x2f, 0x00, 0x00, 0xdc, 0x2e, 0x00, 0x00, 0x68, 0x2e, 0x00, 0x00,
  0xfc, 0x2d, 0x00, 0x00, 0xac, 0x11, 0x00, 0x00, 0x98, 0x10, 0x00, 0x00,
  0xbc, 0x0e, 0x00, 0x00, 0x60, 0x06, 0x00, 0x00, 0xfc, 0x05, 0x00, 0x00,
  0x78, 0x05, 0x00, 0x00, 0xa8, 0x2f, 0x00, 0x00, 0xa4, 0x2f, 0x00, 0x00,
  0xa0, 0x2f, 0x00, 0x00, 0x9c, 0x2f, 0x00, 0x00, 0x98, 0x2f, 0x00, 0x00,
  0x94, 0x2f, 0x00, 0x00, 0x90, 0x2f, 0x00, 0x00, 0x8c, 0x2f, 0x00, 0x00,
  0x0f, 0x00, 0x00, 0x00, 0x4d, 0x4c, 0x49, 0x52, 0x20, 0x43, 0x6f, 0x6e,
  0x76, 0x65, 0x72, 0x74, 0x65, 0x64, 0x2e, 0x00, 0x00, 0x00, 0x0e, 0x00,
  0x18, 0x00, 0x04, 0x00, 0x08, 0x00, 0x0c, 0x00, 0x10, 0x00, 0x14, 0x00,
  0x0e, 0x00, 0x00, 0x00, 0x14, 0x00, 0x00, 0x00, 0x5c, 0x00, 0x00, 0x00,
  0x60, 0x00, 0x00, 0x00, 0x64, 0x00, 0x00, 0x00, 0x84, 0x00, 0x00, 0x00,
  0x12, 0x00, 0x00, 0x00, 0x04, 0x2f, 0x00, 0x00, 0xa0, 0x2e, 0x00, 0x00,
  0xf8, 0x2d, 0x00, 0x00, 0x98, 0x2d, 0x00, 0x00, 0x30, 0x2d, 0x00, 0x00,
  0xdc, 0x10, 0x00, 0x00, 0xc0, 0x0f, 0x00, 0x00, 0xe4, 0x0d, 0x00, 0x00,
  0xa0, 0x05, 0x00, 0x00, 0x3c, 0x05, 0x00, 0x00, 0xb0, 0x04, 0x00, 0x00,
  0xe8, 0x03, 0x00, 0x00, 0x38, 0x03, 0x00, 0x00, 0xa4, 0x02, 0x00, 0x00,
  0x10, 0x02, 0x00, 0x00, 0x90, 0x01, 0x00, 0x00, 0xfc, 0x00, 0x00, 0x00,
  0x80, 0x00, 0x00, 0x00, 0x01, 0x00, 0x00, 0x00, 0x00, 0x00, 0x00, 0x00,
  0x01, 0x00, 0x00, 0x00, 0x11, 0x00, 0x00, 0x00, 0x08, 0x00, 0x00, 0x00,
  0x1c, 0x04, 0x00, 0x00, 0x58, 0x03, 0x00, 0x00, 0xc8, 0x02, 0x00, 0x00,
  0x24, 0x02, 0x00, 0x00, 0xac, 0x01, 0x00, 0x00, 0x10, 0x01, 0x00, 0x00,
  0x94, 0x00, 0x00, 0x00, 0x10, 0x00, 0x00, 0x00, 0x04, 0x00, 0x00, 0x00,
  0x6d, 0x61, 0x69, 0x6e, 0x00, 0x00, 0x00, 0x00, 0x8e, 0xff, 0xff, 0xff,
  0x00, 0x00, 0x00, 0x09, 0x04, 0x00, 0x00, 0x00, 0x1c, 0x00, 0x00, 0x00,
  0x10, 0x00, 0x00, 0x00, 0x04, 0x00, 0x00, 0x00, 0x4e, 0xd2, 0xff, 0xff,
  0x00, 0x00, 0x80, 0x3f, 0x01, 0x00, 0x00, 0x00, 0x11, 0x00, 0x00, 0x00,
  0x01, 0x00, 0x00, 0x00, 0x10, 0x00, 0x00, 0x00, 0xf6, 0xfb, 0xff, 0xff,
  0x00, 0x00, 0x00, 0x19, 0x01, 0x00, 0x00, 0x00, 0xce, 0xd1, 0xff, 0xff,
  0x10, 0x00, 0x00, 0x00, 0x12, 0x00, 0x00, 0x00, 0x14, 0x00, 0x00, 0x00,
  0x20, 0x00, 0x00, 0x00, 0x02, 0x00, 0x00, 0x00, 0x01, 0x00, 0x00, 0x00,
  0x03, 0x00, 0x00, 0x00, 0x08, 0x00, 0x00, 0x00, 0x49, 0x64, 0x65, 0x6e,
  0x74, 0x69, 0x74, 0x79, 0x00, 0x00, 0x00, 0x00, 0x08, 0xd2, 0xff, 0xff,
  0x00, 0x00, 0x0e, 0x00, 0x18, 0x00, 0x08, 0x00, 0x0c, 0x00, 0x10, 0x00,
  0x07, 0x00, 0x14, 0x00, 0x0e, 0x00, 0x00, 0x00, 0x00, 0x00, 0x00, 0x08,
  0x03, 0x00, 0x00, 0x00, 0x18, 0x00, 0x00, 0x00, 0x0c, 0x00, 0x00, 0x00,
  0x04, 0x00, 0x00, 0x00, 0xdc, 0xd1, 0xff, 0xff, 0x01, 0x00, 0x00, 0x00,
  0x10, 0x00, 0x00, 0x00, 0x03, 0x00, 0x00, 0x00, 0x0f, 0x00, 0x00, 0x00,
  0x05, 0x00, 0x00, 0x00, 0x02, 0x00, 0x00, 0x00, 0x46, 0xd2, 0xff, 0xff,
  0x10, 0x00, 0x00, 0x00, 0x11, 0x00, 0x00, 0x00, 0x14, 0x00, 0x00, 0x00,
  0x30, 0x00, 0x00, 0x00, 0x02, 0x00, 0x00, 0x00, 0x01, 0x00, 0x00, 0x00,
  0x03, 0x00, 0x00, 0x00, 0x1a, 0x00, 0x00, 0x00, 0x73, 0x65, 0x71, 0x75,
  0x65, 0x6e, 0x74, 0x69, 0x61, 0x6c, 0x2f, 0x64, 0x65, 0x6e, 0x73, 0x65,
  0x5f, 0x31, 0x2f, 0x42, 0x69, 0x61, 0x73, 0x41, 0x64, 0x64, 0x00, 0x00,
  0x38, 0xd2, 0xff, 0xff, 0xd6, 0xfd, 0xff, 0xff, 0x00, 0x00, 0x00, 0x08,
  0x03, 0x00, 0x00, 0x00, 0x24, 0x00, 0x00, 0x00, 0x18, 0x00, 0x00, 0x00,
  0x0c, 0x00, 0x00, 0x00, 0x00, 0x00, 0x06, 0x00, 0x08, 0x00, 0x07, 0x00,
  0x06, 0x00, 0x00, 0x00, 0x00, 0x00, 0x00, 0x01, 0x01, 0x00, 0x00, 0x00,
  0x0f, 0x00, 0x00, 0x00, 0x03, 0x00, 0x00, 0x00, 0x0e, 0x00, 0x00, 0x00,
  0x04, 0x00, 0x00, 0x00, 0x01, 0x00, 0x00, 0x00, 0xfe, 0xfc, 0xff, 0xff,
  0x00, 0x00, 0x00, 0x09, 0x01, 0x00, 0x00, 0x00, 0xd6, 0xd2, 0xff, 0xff,
  0x10, 0x00, 0x00, 0x00, 0x10, 0x00, 0x00, 0x00, 0x14, 0x00, 0x00, 0x00,
  0x2c, 0x00, 0x00, 0x00, 0x02, 0x00, 0x00, 0x00, 0x01, 0x00, 0x00, 0x00,
  0x10, 0x00, 0x00, 0x00, 0x15, 0x00, 0x00, 0x00, 0x73, 0x65, 0x71, 0x75,
  0x65, 0x6e, 0x74, 0x69, 0x61, 0x6c, 0x2f, 0x64, 0x65, 0x6e, 0x73, 0x65,
  0x2f, 0x52, 0x65, 0x6c, 0x75, 0x00, 0x00, 0x00, 0x1c, 0xd3, 0xff, 0xff,
  0x00, 0x00, 0x0a, 0x00, 0x10, 0x00, 0x04, 0x00, 0x08, 0x00, 0x0c, 0x00,
  0x0a, 0x00, 0x00, 0x00, 0x02, 0x00, 0x00, 0x00, 0x10, 0x00, 0x00, 0x00,
  0x04, 0x00, 0x00, 0x00, 0x01, 0x00, 0x00, 0x00, 0x0e, 0x00, 0x00, 0x00,
  0x02, 0x00, 0x00, 0x00, 0x0d, 0x00, 0x00, 0x00, 0x03, 0x00, 0x00, 0x00,
  0x7a, 0xfd, 0xff, 0xff, 0x00, 0x00, 0x00, 0x16, 0x01, 0x00, 0x00, 0x00,
  0x52, 0xd3, 0xff, 0xff, 0x10, 0x00, 0x00, 0x00, 0x0f, 0x00, 0x00, 0x00,
  0x14, 0x00, 0x00, 0x00, 0x30, 0x00, 0x00, 0x00, 0x02, 0x00, 0x00, 0x00,
  0x01, 0x00, 0x00, 0x00, 0x70, 0x00, 0x00, 0x00, 0x1a, 0x00, 0x00, 0x00,
  0x73, 0x65, 0x71, 0x75, 0x65, 0x6e, 0x74, 0x69, 0x61, 0x6c, 0x2f, 0x66,
  0x6c, 0x61, 0x74, 0x74, 0x65, 0x6e, 0x2f, 0x52, 0x65, 0x73, 0x68, 0x61,
  0x70, 0x65, 0x00, 0x00, 0x44, 0xd3, 0xff, 0xff, 0xe2, 0xfe, 0xff, 0xff,
  0x00, 0x00, 0x00, 0x05, 0x01, 0x00, 0x00, 0x00, 0x38, 0x00, 0x00, 0x00,
  0x2c, 0x00, 0x00, 0x00, 0x14, 0x00, 0x00, 0x00, 0x00, 0x00, 0x0e, 0x00,
  0x14, 0x00, 0x00, 0x00, 0x10, 0x00, 0x0c, 0x00, 0x08, 0x00, 0x04, 0x00,
  0x0e, 0x00, 0x00, 0x00, 0x03, 0x00, 0x00, 0x00, 0x01, 0x00, 0x00, 0x00,
  0x03, 0x00, 0x00, 0x00, 0x01, 0x00, 0x00, 0x00, 0x01, 0x00, 0x00, 0x00,
  0x0d, 0x00, 0x00, 0x00, 0x01, 0x00, 0x00, 0x00, 0x0c, 0x00, 0x00, 0x00,
  0xe2, 0xd3, 0xff, 0xff, 0x10, 0x00, 0x00, 0x00, 0x0e, 0x00, 0x00, 0x00,
  0x1c, 0x00, 0x00, 0x00, 0x40, 0x00, 0x00, 0x00, 0x04, 0x00, 0x00, 0x00,
  0x01, 0x00, 0x00, 0x00, 0x07, 0x00, 0x00, 0x00, 0x01, 0x00, 0x00, 0x00,
  0x10, 0x00, 0x00, 0x00, 0x22, 0x00, 0x00, 0x00, 0x73, 0x65, 0x71, 0x75,
  0x65, 0x6e, 0x74, 0x69, 0x61, 0x6c, 0x2f, 0x6d, 0x61, 0x78, 0x5f, 0x70,
  0x6f, 0x6f, 0x6c, 0x69, 0x6e, 0x67, 0x32, 0x64, 0x5f, 0x31, 0x2f, 0x4d,
  0x61, 0x78, 0x50, 0x6f, 0x6f, 0x6c, 0x00, 0x00, 0xe4, 0xd3, 0xff, 0xff,
  0xc2, 0xfe, 0xff, 0xff, 0x00, 0x00, 0x00, 0x01, 0x24, 0x00, 0x00, 0x00,
  0x18, 0x00, 0x00, 0x00, 0x04, 0x00, 0x00, 0x00, 0xb4, 0xfe, 0xff, 0xff,
  0x01, 0x00, 0x00, 0x00, 0x01, 0x00, 0x00, 0x00, 0x00, 0x00, 0x00, 0x01,
  0x01, 0x00, 0x00, 0x00, 0x0c, 0x00, 0x00, 0x00, 0x03, 0x00, 0x00, 0x00,
  0x0b, 0x00, 0x00, 0x00, 0x07, 0x00, 0x00, 0x00, 0x09, 0x00, 0x00, 0x00,
  0x72, 0xd4, 0xff, 0xff, 0x10, 0x00, 0x00, 0x00, 0x0d, 0x00, 0x00, 0x00,
  0x1c, 0x00, 0x00, 0x00, 0x2c, 0x00, 0x00, 0x00, 0x04, 0x00, 0x00, 0x00,
  0x01, 0x00, 0x00, 0x00, 0x15, 0x00, 0x00, 0x00, 0x01, 0x00, 0x00, 0x00,
  0x10, 0x00, 0x00, 0x00, 0x0c, 0x00, 0x00, 0x00, 0x74, 0x66, 0x6c, 0x2e,
  0x63, 0x6f, 0x6e, 0x76, 0x5f, 0x32, 0x64, 0x31, 0x00, 0x00, 0x00, 0x00,
  0xb8, 0xd4, 0xff, 0xff, 0x00, 0x00, 0x0e, 0x00, 0x1a, 0x00, 0x08, 0x00,
  0x0c, 0x00, 0x10, 0x00, 0x07, 0x00, 0x14, 0x00, 0x0e, 0x00, 0x00, 0x00,
  0x00, 0x00, 0x00, 0x05, 0x01, 0x00, 0x00, 0x00, 0x3c, 0x00, 0x00, 0x00,
  0x30, 0x00, 0x00, 0x00, 0x14, 0x00, 0x00, 0x00, 0x00, 0x00, 0x0e, 0x00,
  0x18, 0x00, 0x17, 0x00, 0x10, 0x00, 0x0c, 0x00, 0x08, 0x00, 0x04, 0x00,
  0x0e, 0x00, 0x00, 0x00, 0x03, 0x00, 0x00, 0x00, 0x03, 0x00, 0x00, 0x00,
  0x03, 0x00, 0x00, 0x00, 0x03, 0x00, 0x00, 0x00, 0x00, 0x00, 0x00, 0x01,
  0x01, 0x00, 0x00, 0x00, 0x0b, 0x00, 0x00, 0x00, 0x01, 0x00, 0x00, 0x00,
  0x0a, 0x00, 0x00, 0x00, 0x46, 0xff, 0xff, 0xff, 0x00, 0x00, 0x00, 0x11,
  0x01, 0x00, 0x00, 0x00, 0x1e, 0xd5, 0xff, 0xff, 0x10, 0x00, 0x00, 0x00,
  0x0c, 0x00, 0x00, 0x00, 0x1c, 0x00, 0x00, 0x00, 0x40, 0x00, 0x00, 0x00,
  0x04, 0x00, 0x00, 0x00, 0x01, 0x00, 0x00, 0x00, 0x15, 0x00, 0x00, 0x00,
  0x01, 0x00, 0x00, 0x00, 0x08, 0x00, 0x00, 0x00, 0x20, 0x00, 0x00, 0x00,
  0x73, 0x65, 0x71, 0x75, 0x65, 0x6e, 0x74, 0x69, 0x61, 0x6c, 0x2f, 0x6d,
  0x61, 0x78, 0x5f, 0x70, 0x6f, 0x6f, 0x6c, 0x69, 0x6e, 0x67, 0x32, 0x64,
  0x2f, 0x4d, 0x61, 0x78, 0x50, 0x6f, 0x6f, 0x6c, 0x00, 0x00, 0x00, 0x00,
  0x78, 0xd5, 0xff, 0xff, 0x00, 0x00, 0x0e, 0x00, 0x14, 0x00, 0x00, 0x00,
  0x08, 0x00, 0x0c, 0x00, 0x07, 0x00, 0x10, 0x00, 0x0e, 0x00, 0x00, 0x00,
  0x00, 0x00, 0x00, 0x01, 0x30, 0x00, 0x00, 0x00, 0x24, 0x00, 0x00, 0x00,
  0x10, 0x00, 0x00, 0x00, 0x0c, 0x00, 0x10, 0x00, 0x00, 0x00, 0x04, 0x00,
  0x08, 0x00, 0x0f, 0x00, 0x0c, 0x00, 0x00, 0x00, 0x01, 0x00, 0x00, 0x00,
  0x01, 0x00, 0x00, 0x00, 0x00, 0x00, 0x00, 0x01, 0x01, 0x00, 0x00, 0x00,
  0x0a, 0x00, 0x00, 0x00, 0x03, 0x00, 0x00, 0x00, 0x00, 0x00, 0x00, 0x00,
  0x06, 0x00, 0x00, 0x00, 0x08, 0x00, 0x00, 0x00, 0x00, 0x00, 0x0a, 0x00,
  0x0c, 0x00, 0x07, 0x00, 0x00, 0x00, 0x08, 0x00, 0x0a, 0x00, 0x00, 0x00,
  0x00, 0x00, 0x00, 0x03, 0x01, 0x00, 0x00, 0x00, 0xe2, 0xd5, 0xff, 0xff,
  0x10, 0x00, 0x00, 0x00, 0x0b, 0x00, 0x00, 0x00, 0x1c, 0x00, 0x00, 0x00,
  0x28, 0x00, 0x00, 0x00, 0x04, 0x00, 0x00, 0x00, 0x01, 0x00, 0x00, 0x00,
  0x40, 0x00, 0x00, 0x00, 0x03, 0x00, 0x00, 0x00, 0x08, 0x00, 0x00, 0x00,
  0x0b, 0x00, 0x00, 0x00, 0x74, 0x66, 0x6c, 0x2e, 0x63, 0x6f, 0x6e, 0x76,
  0x5f, 0x32, 0x64, 0x00, 0xcc, 0xd5, 0xff, 0xff, 0xc2, 0xd6, 0xff, 0xff,
  0x04, 0x00, 0x00, 0x00, 0x40, 0x00, 0x00, 0x00, 0x67, 0xdf, 0xa5, 0xbf,
  0x32, 0x8c, 0x6d, 0xbb, 0xed, 0xc6, 0xf5, 0xbf, 0x4e, 0x48, 0x17, 0xc0,
  0x6c, 0x59, 0xd7, 0x3f, 0x2b, 0x7d, 0x3d, 0xbf, 0x8d, 0x88, 0x05, 0xbf,
  0xc8, 0xdb, 0x02, 0xbf, 0x38, 0x50, 0xc5, 0xbf, 0x55, 0xe3, 0xf9, 0x3f,
  0xc8, 0x5e, 0x49, 0x3f, 0x7e, 0x55, 0xe3, 0x3f, 0xab, 0x67, 0x20, 0xbe,
  0x25, 0x9d, 0xa9, 0xbf, 0xe0, 0x77, 0x01, 0x40, 0x38, 0x51, 0x3e, 0xc0,
  0x6a, 0xd6, 0xff, 0xff, 0x10, 0x00, 0x00, 0x00, 0x0a, 0x00, 0x00, 0x00,
  0x10, 0x00, 0x00, 0x00, 0x20, 0x00, 0x00, 0x00, 0x01, 0x00, 0x00, 0x00,
  0x10, 0x00, 0x00, 0x00, 0x0d, 0x00, 0x00, 0x00, 0x73, 0x74, 0x64, 0x2e,
  0x63, 0x6f, 0x6e, 0x73, 0x74, 0x61, 0x6e, 0x74, 0x31, 0x00, 0x00, 0x00,
  0x4c, 0xd6, 0xff, 0xff, 0x42, 0xd7, 0xff, 0xff, 0x04, 0x00, 0x00, 0x00,
  0x20, 0x00, 0x00, 0x00, 0x3e, 0x60, 0x3f, 0x3c, 0xea, 0xfa, 0x3c, 0xc0,
  0x59, 0xdf, 0x1a, 0x3c, 0x18, 0x07, 0xab, 0xbf, 0x0d, 0x0f, 0x1e, 0xc0,
  0x62, 0xff, 0x33, 0xc0, 0x1e, 0x33, 0xa4, 0x3e, 0x96, 0x15, 0x22, 0xc0,
  0xca, 0xd6, 0xff, 0xff, 0x10, 0x00, 0x00, 0x00, 0x09, 0x00, 0x00, 0x00,
  0x10, 0x00, 0x00, 0x00, 0x20, 0x00, 0x00, 0x00, 0x01, 0x00, 0x00, 0x00,
  0x08, 0x00, 0x00, 0x00, 0x0c, 0x00, 0x00, 0x00, 0x73, 0x74, 0x64, 0x2e,
  0x63, 0x6f, 0x6e, 0x73, 0x74, 0x61, 0x6e, 0x74, 0x00, 0x00, 0x00, 0x00,
  0xac, 0xd6, 0xff, 0xff, 0xa2, 0xd7, 0xff, 0xff, 0x04, 0x00, 0x00, 0x00,
  0x00, 0x08, 0x00, 0x00, 0x8d, 0xec, 0x8d, 0xbb, 0x01, 0x84, 0xba, 0xbd,
  0x65, 0x74, 0x64, 0x3e, 0xbd, 0x17, 0xbe, 0xbe, 0x91, 0xc0, 0x71, 0x3d,
  0x77, 0x2f, 0xf6, 0x3d, 0xf3, 0xe2, 0x01, 0xbf, 0x45, 0x0b, 0xbf, 0x3c,
  0x31, 0x4e, 0xff, 0xbb, 0x74, 0xe0, 0x86, 0x3e, 0xf8, 0xfd, 0xe6, 0x3c,
  0xde, 0x59, 0xd1, 0xbd, 0x6e, 0xb0, 0x44, 0x3e, 0xe5, 0xc2, 0xbc, 0x3e,
  0xaf, 0xc2, 0x1f, 0xbf, 0x9c, 0x56, 0x94, 0x3c, 0x23, 0x3b, 0x4f, 0xbc,
  0xec, 0x1c, 0x99, 0x3e, 0xff, 0x8a, 0x1b, 0xbe, 0x11, 0x4d, 0xf8, 0xbd,
  0x23, 0x0b, 0xd4, 0xbd, 0xc8, 0xc9, 0xd2, 0xbc, 0xe6, 0x55, 0x57, 0xbf,
  0xbd, 0x28, 0x3c, 0x3e, 0x8d, 0x3c, 0x32, 0x3b, 0x97, 0x2e, 0xe6, 0x3d,
  0x0a, 0x5c, 0x78, 0xbd, 0x50, 0x28, 0x95, 0xbe, 0xfc, 0x60, 0xa5, 0xbe,
  0xb7, 0x2a, 0x37, 0xbe, 0xb2, 0x06, 0x99, 0xbe, 0x60, 0x6b, 0x7f, 0xbd,
  0xaf, 0x7f, 0xc3, 0x3c, 0x39, 0x44, 0x40, 0xbe, 0x53, 0x18, 0xe0, 0xbe,
  0x06, 0xee, 0xce, 0x3c, 0xf9, 0xc4, 0x30, 0x3d, 0xf2, 0xf5, 0x8b, 0x3e,
  0x02, 0x43, 0x87, 0xbe, 0x3f, 0x86, 0x26, 0x3e, 0xce, 0xf3, 0x2c, 0xbe,
  0x1d, 0x06, 0x83, 0xbe, 0x5b, 0x53, 0x90, 0xbe, 0x8a, 0x85, 0xe7, 0x3b,
  0x26, 0xf7, 0xf6, 0x3d, 0x9a, 0x44, 0x99, 0xbd, 0xcc, 0x71, 0x04, 0xbd,
  0xc7, 0xa6, 0xd1, 0xbe, 0xa7, 0x28, 0xa5, 0x3c, 0x5c, 0x86, 0x6d, 0xbe,
  0x89, 0xfd, 0xea, 0xbe, 0xc2, 0x4e, 0x6f, 0x3d, 0xfa, 0xf9, 0xcd, 0xbc,
  0x11, 0x25, 0xa1, 0x3d, 0x97, 0xf4, 0x4e, 0xbe, 0xc3, 0x58, 0x24, 0x3d,
  0x18, 0x97, 0xb4, 0xbd, 0xe1, 0xbd, 0xbd, 0xbd, 0x72, 0x27, 0x58, 0xbd,
  0xde, 0x2a, 0xc8, 0x3d, 0xca, 0xcd, 0x44, 0x3e, 0xba, 0x07, 0xdb, 0x3e,
  0x25, 0xc8, 0x02, 0x3e, 0x72, 0xf9, 0xa4, 0x3d, 0x56, 0x91, 0x28, 0xbd,
  0x88, 0xc6, 0xb7, 0x3e, 0x67, 0xd6, 0x86, 0xbd, 0xc4, 0xc3, 0x4a, 0xbc,
  0x31, 0x33, 0x9c, 0xbe, 0xce, 0x9b, 0xc7, 0xbe, 0x92, 0x06, 0x15, 0xbe,
  0x84, 0x38, 0xb8, 0x3c, 0xb8, 0x63, 0x91, 0xbd, 0x6b, 0x2d, 0xa6, 0xbe,
  0x28, 0xb7, 0x05, 0xbd, 0x19, 0xef, 0xa7, 0x3e, 0x7b, 0xd6, 0xa2, 0x3e,
  0x33, 0x09, 0x3f, 0x3e, 0xee, 0x83, 0xc2, 0xbd, 0xb1, 0x8c, 0x1f, 0x3d,
  0xf6, 0x09, 0x11, 0xbd, 0xd1, 0x69, 0x91, 0xbe, 0xdd, 0x2c, 0x19, 0xbd,
  0x7a, 0xeb, 0x3b, 0xbe, 0xa5, 0xb4, 0x06, 0x3e, 0x76, 0x2a, 0x76, 0x3e,
  0x5d, 0x98, 0xd5, 0xbd, 0xf3, 0x41, 0xc1, 0x3e, 0xa6, 0xb8, 0x54, 0x3b,
  0x19, 0xaa, 0x77, 0x3e, 0x20, 0x1d, 0x7d, 0xbc, 0xfe, 0xe5, 0x3d, 0x3d,
  0x7f, 0x0f, 0xd9, 0x3d, 0xa1, 0xed, 0xe1, 0x3e, 0x17, 0xd9, 0x3f, 0xbd,
  0x8f, 0xa1, 0x75, 0x3e, 0x32, 0xfd, 0x15, 0xbd, 0x1a, 0x21, 0x7b, 0x3c,
  0xd3, 0xb3, 0x56, 0xbc, 0x61, 0x99, 0xf6, 0x3d, 0x4a, 0x04, 0xdd, 0x3e,
  0x71, 0x95, 0x8c, 0x3e, 0x5e, 0x5a, 0xd1, 0xbd, 0x23, 0x37, 0x69, 0x3d,
  0x90, 0x58, 0x35, 0xbd, 0x47, 0x2b, 0x17, 0x3e, 0x0b, 0x7c, 0xc1, 0xbd,
  0x1b, 0xea, 0xda, 0x3d, 0x02, 0x2b, 0xa0, 0xbd, 0x6f, 0x19, 0xce, 0x3e,
  0x4f, 0x29, 0x03, 0xbe, 0xf4, 0x34, 0xa1, 0x3d, 0xc1, 0xa5, 0x21, 0xbd,
  0xc9, 0x79, 0xf8, 0x3d, 0x99, 0x97, 0xf0, 0xbd, 0xe8, 0x76, 0x7e, 0x3c,
  0x63, 0x6d, 0x15, 0x3d, 0x2e, 0x17, 0xe4, 0xbe, 0x4b, 0x27, 0xba, 0xbd,
  0xb8, 0xa1, 0xa0, 0x3e, 0x60, 0x71, 0x61, 0xbd, 0x87, 0xda, 0xa1, 0x3d,
  0x29, 0xf4, 0xb6, 0xbd, 0x8d, 0xf8, 0x63, 0xbd, 0x33, 0x4b, 0x45, 0xbe,
  0xd7, 0x88, 0xe4, 0xbc, 0x0b, 0xfe, 0x0d, 0xbe, 0x52, 0x75, 0x03, 0x3f,
  0xa3, 0x66, 0xc5, 0xbd, 0x5a, 0x62, 0x61, 0xbc, 0x5b, 0xc0, 0x52, 0x3c,
  0xb1, 0xd2, 0x3c, 0xbe, 0x83, 0x48, 0x68, 0x3e, 0xa3, 0x06, 0x6a, 0x3e,
  0xec, 0xc0, 0x42, 0x3d, 0xdb, 0x66, 0x92, 0x3d, 0x92, 0xff, 0x80, 0xbd,
  0xb1, 0x43, 0xab, 0xbe, 0x77, 0x21, 0x7b, 0x3c, 0xbb, 0x5c, 0xab, 0xbe,
  0xea, 0xec, 0x58, 0x3e, 0x9d, 0xdb, 0x48, 0x3e, 0x70, 0xed, 0xf2, 0xbc,
  0x64, 0xb3, 0x89, 0x3d, 0xea, 0xd5, 0x7f, 0xba, 0x91, 0x5d, 0x0a, 0xbe,
  0x13, 0x3a, 0xa1, 0x3c, 0x7c, 0x70, 0x4a, 0xbe, 0x38, 0x65, 0x06, 0xbf,
  0xeb, 0x43, 0x40, 0xbf, 0x97, 0x91, 0x30, 0xbd, 0x63, 0xb3, 0x80, 0xbe,
  0x7e, 0x8e, 0x85, 0x3b, 0x4a, 0x30, 0xb5, 0x3e, 0x19, 0x35, 0x4d, 0xbd,
  0x3c, 0xbd, 0xed, 0x3e, 0xd4, 0x35, 0x35, 0xbf, 0x18, 0x85, 0x4b, 0xbf,
  0x23, 0x3c, 0x1b, 0x3c, 0xc7, 0x65, 0x2a, 0xbe, 0x70, 0x60, 0x64, 0xbc,
  0x2f, 0xa2, 0xd0, 0xbd, 0x94, 0x34, 0x13, 0xbe, 0xcd, 0x37, 0xbe, 0xbe,
  0x16, 0x20, 0x35, 0xbe, 0xb7, 0x36, 0x59, 0xbe, 0x9e, 0xa4, 0x95, 0xbe,
  0x32, 0x0a, 0xc8, 0x3e, 0x30, 0x5a, 0xb3, 0x3a, 0xba, 0xd0, 0x7c, 0xbe,
  0x3b, 0x2c, 0x40, 0xbe, 0xba, 0x6a, 0x08, 0xbf, 0x03, 0x7d, 0xe3, 0x3c,
  0xa9, 0x22, 0x39, 0xbe, 0xd5, 0x72, 0x0b, 0xbf, 0x5e, 0x0d, 0x04, 0xbf,
  0x3d, 0x53, 0x13, 0x3d, 0xff, 0x89, 0x16, 0xbe, 0xe3, 0xb3, 0x2f, 0xbe,
  0x1c, 0xb2, 0x2d, 0xbd, 0x31, 0x2b, 0x0b, 0x3d, 0x2e, 0xc1, 0x6f, 0xbd,
  0x7d, 0x49, 0xce, 0xbe, 0x26, 0xbd, 0xb8, 0x3c, 0x10, 0x63, 0x87, 0x3d,
  0x89, 0x94, 0x4d, 0x3e, 0x6d, 0xae, 0x1e, 0x3d, 0xe3, 0xea, 0x17, 0x3d,
  0x25, 0x07, 0x20, 0x3e, 0x6b, 0x69, 0xcb, 0x3e, 0x71, 0xfb, 0xef, 0xbe,
  0x28, 0xbe, 0xbb, 0x3e, 0xba, 0xf4, 0x17, 0xbf, 0x69, 0xf7, 0x87, 0x3e,
  0x1e, 0xfb, 0x79, 0xbe, 0x99, 0x0a, 0x1c, 0x3e, 0xd5, 0x4e, 0x9a, 0x3d,
  0x19, 0xb0, 0xc1, 0x3e, 0x23, 0x22, 0x18, 0x3e, 0x62, 0xb8, 0x82, 0xbd,
  0xb7, 0x76, 0xb5, 0xbe, 0x2c, 0xa8, 0x09, 0xbf, 0xf5, 0xe8, 0xb3, 0xbe,
  0xf6, 0x08, 0xfa, 0xbe, 0x95, 0x67, 0x10, 0x3e, 0x1e, 0xd3, 0x9e, 0x3d,
  0xe1, 0x0b, 0x56, 0x3e, 0x26, 0xe3, 0x67, 0x3e, 0x68, 0x38, 0x47, 0xbc,
  0x4c, 0x3a, 0xa0, 0xbd, 0x16, 0x86, 0x9b, 0xbe, 0x10, 0xe7, 0x38, 0xbe,
  0x01, 0x57, 0xe0, 0x3d, 0xf6, 0x48, 0xed, 0x3d, 0x54, 0x8a, 0xef, 0xbd,
  0xdf, 0x51, 0xbf, 0x3d, 0x77, 0x06, 0x0c, 0x3e, 0x27, 0x8c, 0x6e, 0x3a,
  0xdd, 0xb0, 0x00, 0xbf, 0xf9, 0xb1, 0x7b, 0xbd, 0xa0, 0x91, 0x5b, 0xbe,
  0x11, 0x72, 0xc3, 0xbe, 0x55, 0x59, 0xac, 0xbe, 0x50, 0x76, 0x21, 0xbe,
  0x6c, 0x5d, 0xa2, 0xbc, 0x26, 0x1d, 0xec, 0xbd, 0xf2, 0x6f, 0x3f, 0xbd,
  0x5f, 0x56, 0x70, 0xbe, 0x87, 0x74, 0x50, 0xbe, 0x15, 0xb8, 0x85, 0xbe,
  0xad, 0x76, 0xdf, 0xbe, 0xb8, 0xa7, 0x04, 0xbe, 0xf6, 0xbd, 0xa5, 0x3d,
  0xf0, 0x60, 0xd5, 0xbc, 0xec, 0xa2, 0x52, 0x3e, 0x24, 0x54, 0xce, 0xbd,
  0xc3, 0xa4, 0xfd, 0x3d, 0x38, 0x0e, 0x43, 0x3e, 0x58, 0x79, 0x1f, 0xbf,
  0xfd, 0x3e, 0x26, 0x3c, 0x20, 0x44, 0x33, 0xbb, 0x89, 0x0d, 0x97, 0x3e,
  0xf3, 0xf7, 0x54, 0xbe, 0x76, 0xe3, 0x38, 0x3e, 0x44, 0x58, 0x35, 0xbd,
  0x0e, 0xdf, 0x09, 0x3e, 0x57, 0x16, 0xcd, 0xbe, 0x4b, 0xd0, 0xac, 0x3d,
  0x75, 0x4e, 0xab, 0x3b, 0x1c, 0x75, 0x3c, 0x3d, 0x3a, 0x0e, 0x89, 0xbe,
  0x68, 0x3b, 0x81, 0x3d, 0x0d, 0xc0, 0x25, 0xbe, 0x06, 0x20, 0xcf, 0x3d,
  0x38, 0x0b, 0x9e, 0xbe, 0x4f, 0x10, 0x4f, 0x3d, 0xfb, 0x13, 0x58, 0x3e,
  0xc4, 0x9c, 0x07, 0x3f, 0xf8, 0x04, 0x99, 0xbe, 0xb7, 0xe6, 0x20, 0x3e,
  0x29, 0x57, 0x6f, 0x3d, 0x67, 0xd9, 0x1d, 0x3d, 0x2e, 0x13, 0x2e, 0xbf,
  0xa2, 0x3c, 0x81, 0x3e, 0x51, 0xf1, 0x90, 0xbd, 0x00, 0xcb, 0x23, 0x3e,
  0xbe, 0x9d, 0x7b, 0xbe, 0x3c, 0x61, 0x1f, 0xbd, 0x04, 0x06, 0x6c, 0xbe,
  0x9f, 0xda, 0xa7, 0xbe, 0x09, 0x98, 0x25, 0xbf, 0x0d, 0x30, 0x28, 0x3e,
  0x64, 0x98, 0x03, 0xbe, 0x03, 0x02, 0x4f, 0xbe, 0x36, 0x38, 0x22, 0xbe,
  0xb0, 0xf8, 0x7e, 0x3c, 0x1b, 0xc3, 0x56, 0xbe, 0xc4, 0xc3, 0x3e, 0xbe,
  0x11, 0x34, 0x68, 0xbe, 0x28, 0xd6, 0x7f, 0x3e, 0x26, 0xa0, 0x0b, 0xbe,
  0x42, 0x5e, 0x73, 0xbe, 0x70, 0xae, 0x5a, 0x3e, 0x23, 0x2c, 0x21, 0x3d,
  0x06, 0xcf, 0x50, 0x3c, 0x15, 0xec, 0x19, 0xbc, 0x79, 0x04, 0x12, 0x3d,
  0x97, 0x4a, 0x11, 0x3e, 0x50, 0x50, 0xa5, 0xbc, 0x71, 0x3a, 0xa6, 0x3c,
  0x5b, 0x23, 0x09, 0xbd, 0x40, 0x21, 0x4b, 0x3e, 0x28, 0xe9, 0x4f, 0x3e,
  0xe8, 0xf9, 0xa7, 0xbd, 0x90, 0xff, 0x99, 0x3e, 0x82, 0x4c, 0x41, 0x3c,
  0xa2, 0xcf, 0xec, 0xbd, 0x89, 0xb7, 0x96, 0xbd, 0x0d, 0x3b, 0x18, 0x3d,
  0x8b, 0x5e, 0xca, 0xbd, 0x15, 0x21, 0x8e, 0x3d, 0x72, 0x08, 0x3b, 0x3d,
  0xc6, 0xdc, 0x3d, 0x3d, 0xe9, 0x55, 0xd1, 0xbd, 0x6a, 0x66, 0x3b, 0x3e,
  0x46, 0x7d, 0x80, 0x3d, 0xec, 0x4c, 0xce, 0x3d, 0x24, 0x10, 0x9b, 0x3d,
  0xa9, 0x70, 0x0f, 0x3e, 0xcc, 0x65, 0x76, 0x3c, 0xf6, 0xa2, 0x01, 0xbd,
  0xf1, 0x97, 0xeb, 0xbd, 0xef, 0xaa, 0xbc, 0x3d, 0x7b, 0x37, 0xbe, 0x3d,
  0xc6, 0xac, 0xbd, 0xbb, 0xc4, 0xb6, 0xbe, 0xbd, 0x38, 0x89, 0x0d, 0xbe,
  0xe1, 0xe8, 0x27, 0x3e, 0x58, 0x2d, 0x0b, 0xbd, 0x7c, 0xb2, 0x28, 0xbe,
  0xbe, 0xdf, 0x92, 0x3b, 0xab, 0xae, 0x13, 0xbe, 0xc9, 0x77, 0xc6, 0x3d,
  0xac, 0x62, 0xe5, 0x3b, 0xa7, 0x49, 0x42, 0xbe, 0x27, 0x17, 0xf9, 0xbe,
  0x35, 0xfa, 0x67, 0x3b, 0x2f, 0x09, 0xb0, 0xbe, 0x64, 0x2c, 0xc4, 0x3d,
  0xb9, 0xea, 0x5b, 0xbd, 0x60, 0xbd, 0x97, 0x3b, 0xba, 0x7a, 0x93, 0x3d,
  0x93, 0x91, 0x98, 0xbd, 0x0e, 0x56, 0x29, 0xbe, 0x9b, 0x73, 0xf2, 0xbd,
  0x1e, 0x1c, 0x98, 0x3e, 0x26, 0xfa, 0xea, 0xbc, 0xad, 0x8b, 0xcb, 0xbe,
  0x0a, 0xd7, 0xe5, 0xbd, 0x86, 0xe0, 0x9e, 0xbe, 0x4b, 0xf4, 0xb7, 0xbc,
  0xbe, 0x1d, 0x90, 0xbd, 0x89, 0x40, 0xaf, 0xbe, 0x12, 0xf0, 0x1e, 0xbf,
  0x2d, 0x96, 0xd7, 0x3c, 0x23, 0xaa, 0x1e, 0x3e, 0x34, 0x43, 0x85, 0x3c,
  0x6f, 0xeb, 0x20, 0xbe, 0xb8, 0x8c, 0x66, 0x3e, 0xd6, 0x79, 0x63, 0x3e,
  0x83, 0xda, 0xb4, 0xbe, 0x60, 0x3e, 0x0e, 0x3e, 0xd5, 0x35, 0xba, 0x3d,
  0xbc, 0x14, 0xa4, 0x3d, 0x7a, 0x51, 0x3a, 0x3d, 0x40, 0x9a, 0xb3, 0xbc,
  0xbe, 0x4d, 0x39, 0xbe, 0xa7, 0xd6, 0x32, 0xbe, 0xf8, 0x2f, 0x29, 0x3d,
  0x3c, 0x0e, 0x3b, 0xbe, 0xf7, 0xa3, 0xb8, 0x3e, 0x05, 0x8b, 0x40, 0xbc,
  0xcb, 0x01, 0xa7, 0xbc, 0xbf, 0x08, 0xa1, 0x3d, 0xfa, 0x8c, 0x1f, 0xbc,
  0xac, 0xcd, 0x50, 0xbd, 0x12, 0x67, 0x13, 0xbe, 0x48, 0x07, 0xc2, 0xbc,
  0xed, 0x4d, 0x2b, 0xbd, 0x52, 0x12, 0x4c, 0x3e, 0xe4, 0x4d, 0xac, 0xbd,
  0x98, 0xa0, 0x29, 0xbe, 0x04, 0x58, 0x4b, 0x3d, 0xcd, 0xb8, 0x70, 0xbc,
  0x0d, 0x40, 0xfa, 0x3d, 0xf1, 0xf5, 0x99, 0x3d, 0x0f, 0x55, 0x84, 0x3c,
  0x16, 0x5c, 0x58, 0x3d, 0xf8, 0x1f, 0x82, 0xbc, 0xd3, 0x61, 0x7a, 0x3d,
  0xae, 0x17, 0xd6, 0xbc, 0x9b, 0xe5, 0xb0, 0x3d, 0x11, 0x77, 0xb5, 0xbd,
  0x30, 0x34, 0x5f, 0xbd, 0xc2, 0xea, 0x12, 0xbf, 0xc6, 0x2e, 0x1a, 0x3f,
  0x1e, 0xcc, 0x11, 0xbe, 0x66, 0x82, 0x9e, 0x3e, 0x7d, 0x23, 0x0b, 0xbd,
  0x50, 0x2e, 0x00, 0x3e, 0xeb, 0x86, 0x07, 0xbb, 0x97, 0x57, 0x84, 0xbe,
  0xb3, 0xaa, 0xf5, 0xbe, 0x0f, 0x11, 0xa1, 0x3c, 0x2f, 0x28, 0x35, 0xbe,
  0xfc, 0xd5, 0x39, 0x3d, 0x32, 0x4c, 0xac, 0x3e, 0xba, 0xbd, 0x92, 0x3c,
  0x80, 0xb7, 0x1b, 0x3c, 0xf1, 0x54, 0x18, 0xbd, 0xe8, 0xe6, 0x78, 0xbe,
  0x3b, 0xae, 0x79, 0x3d, 0x9a, 0xe0, 0x26, 0xbe, 0xb1, 0xe5, 0xcc, 0xbc,
  0x74, 0x52, 0x89, 0xbe, 0x69, 0xd5, 0xb8, 0x3e, 0x48, 0x3f, 0x0f, 0xbd,
  0x6d, 0x66, 0x23, 0xbd, 0x85, 0x09, 0x26, 0xbe, 0xbe, 0x23, 0x4e, 0x3e,
  0x64, 0x1c, 0x4e, 0xbe, 0x7f, 0x5e, 0x80, 0x3e, 0x36, 0x7b, 0x95, 0x3e,
  0x8b, 0xac, 0xa7, 0x3c, 0xae, 0xc5, 0x31, 0x3c, 0xfb, 0x6f, 0xa0, 0xbd,
  0xcf, 0xb9, 0x94, 0xbd, 0xc8, 0x7c, 0x8b, 0x3e, 0x23, 0xfa, 0x7f, 0xbc,
  0x45, 0x0b, 0x17, 0x3e, 0xc9, 0xf6, 0x49, 0xbf, 0xb8, 0x38, 0x0c, 0xbf,
  0x26, 0x31, 0x0e, 0x3d, 0x93, 0xb9, 0x0a, 0xbe, 0x63, 0xd9, 0x90, 0xbe,
  0x92, 0x93, 0x93, 0x3e, 0x05, 0xe0, 0x98, 0xbd, 0x0f, 0x2d, 0x28, 0x3f,
  0x9d, 0x92, 0xc4, 0x3c, 0xfd, 0xf0, 0xfe, 0xbd, 0x35, 0xba, 0xa6, 0x3c,
  0xcf, 0x86, 0x0f, 0xbe, 0x8c, 0x1c, 0x80, 0xbe, 0x71, 0x28, 0xb5, 0xbe,
  0xe9, 0x7d, 0x13, 0xbd, 0x47, 0x84, 0xd4, 0xbe, 0x41, 0xfa, 0xc9, 0xbd,
  0xa4, 0xe1, 0x80, 0x3e, 0x20, 0xe9, 0x1c, 0xbb, 0xa2, 0xf7, 0x4c, 0xbd,
  0xc8, 0xb5, 0x0b, 0x3c, 0x55, 0xe5, 0x8e, 0xbd, 0xf3, 0xeb, 0x90, 0xbd,
  0x77, 0x3b, 0x3b, 0xbe, 0xf8, 0xf2, 0x47, 0x3e, 0xff, 0x27, 0xcb, 0xbd,
  0xb7, 0x92, 0xe0, 0xbb, 0xdd, 0x80, 0x11, 0x3e, 0xe6, 0x24, 0xe1, 0xbe,
  0xd2, 0x20, 0xab, 0x3e, 0x37, 0x75, 0x8b, 0xbe, 0x8a, 0x92, 0x93, 0x3e,
  0x28, 0x15, 0xe4, 0xbc, 0x0d, 0x82, 0x56, 0x3e, 0x9c, 0xbf, 0xbb, 0x3d,
  0x3a, 0xfd, 0xde, 0x3d, 0x35, 0x9c, 0xa4, 0xbe, 0xd3, 0x8e, 0x16, 0xbe,
  0xf1, 0xa6, 0xa9, 0xbe, 0xc6, 0x60, 0x82, 0xbe, 0x17, 0x5b, 0xad, 0x3e,
  0x4c, 0xb9, 0x7d, 0xbc, 0x99, 0xf2, 0x10, 0xbe, 0xbf, 0x57, 0xa2, 0xbc,
  0x1a, 0x61, 0x24, 0xbe, 0x61, 0x4a, 0x16, 0x3e, 0xaa, 0x47, 0x6c, 0xbe,
  0x4d, 0xb1, 0xb3, 0x3e, 0x2a, 0x93, 0x39, 0x3e, 0x8f, 0xde, 0x80, 0x3e,
  0xbb, 0xa1, 0x90, 0xbd, 0xbb, 0xbd, 0x0f, 0xbe, 0x20, 0xff, 0x4a, 0xbe,
  0x3f, 0xe4, 0xcb, 0x3d, 0xcd, 0x1c, 0x99, 0xbe, 0x03, 0x26, 0x51, 0x3d,
  0x8e, 0x7c, 0x39, 0x3d, 0xe3, 0xfc, 0x99, 0x3e, 0x47, 0x70, 0x14, 0xbe,
  0x36, 0x36, 0x8f, 0x3c, 0xd9, 0x8d, 0x98, 0xbd, 0x9c, 0x96, 0x13, 0xbf,
  0x4a, 0xfa, 0x7c, 0xbd, 0x01, 0xe0, 0x07, 0xbf, 0xb9, 0x07, 0x98, 0xbb,
  0x3a, 0xbe, 0x85, 0x3e, 0xef, 0x03, 0xc5, 0xbd, 0xb4, 0xa9, 0x16, 0x3e,
  0x01, 0xc8, 0x4c, 0xbd, 0x5c, 0x28, 0x4a, 0x3e, 0xa0, 0xc2, 0x84, 0xbd,
  0x90, 0x72, 0x92, 0x3e, 0xa1, 0xaf, 0xe6, 0xbe, 0xeb, 0xe9, 0xcb, 0xbe,
  0x61, 0x51, 0x8c, 0xbd, 0x5f, 0x1f, 0x08, 0xbe, 0x7e, 0x67, 0x23, 0xbd,
  0xed, 0x5c, 0xe4, 0x3e, 0xf7, 0x0a, 0x07, 0xbd, 0xc7, 0xc2, 0xdf, 0x3d,
  0x97, 0xcd, 0x39, 0x3c, 0x8f, 0x0c, 0xa9, 0x3e, 0xef, 0x8f, 0xa1, 0xbc,
  0xee, 0x40, 0x4e, 0xbd, 0xaa, 0x68, 0x78, 0x3c, 0xc2, 0x60, 0x13, 0xbe,
  0x67, 0x90, 0x8e, 0xbc, 0x5e, 0xa0, 0x9b, 0xbc, 0x26, 0xcc, 0x4c, 0x3e,
  0x40, 0xa1, 0x16, 0xbe, 0xde, 0x9b, 0x80, 0x3c, 0x08, 0x9d, 0xa3, 0x3d,
  0x0a, 0xdf, 0xff, 0xff, 0x10, 0x00, 0x00, 0x00, 0x08, 0x00, 0x00, 0x00,
  0x1c, 0x00, 0x00, 0x00, 0x38, 0x00, 0x00, 0x00, 0x04, 0x00, 0x00, 0x00,
  0x10, 0x00, 0x00, 0x00, 0x04, 0x00, 0x00, 0x00, 0x01, 0x00, 0x00, 0x00,
  0x08, 0x00, 0x00, 0x00, 0x1a, 0x00, 0x00, 0x00, 0x73, 0x65, 0x71, 0x75,
  0x65, 0x6e, 0x74, 0x69, 0x61, 0x6c, 0x2f, 0x63, 0x6f, 0x6e, 0x76, 0x32,
  0x64, 0x5f, 0x31, 0x2f, 0x43, 0x6f, 0x6e, 0x76, 0x32, 0x44, 0x00, 0x00,
  0x04, 0xdf, 0xff, 0xff, 0xfa, 0xdf, 0xff, 0xff, 0x04, 0x00, 0x00, 0x00,
  0x80, 0x01, 0x00, 0x00, 0xb6, 0x32, 0x46, 0xbc, 0x45, 0x1f, 0x14, 0xbe,
  0x92, 0x5f, 0x51, 0x3c, 0xdc, 0xfd, 0x19, 0xbd, 0x6a, 0xec, 0x17, 0xbd,
  0xc9, 0x64, 0xc1, 0x3d, 0x1d, 0x9b, 0x9a, 0xbc, 0xcd, 0x60, 0x3d, 0xbd,
  0x60, 0xb9, 0x29, 0x3d, 0xcb, 0x8a, 0x05, 0xbd, 0xb0, 0xfb, 0x1a, 0xbc,
  0x3f, 0x22, 0xe8, 0x3c, 0x95, 0xf3, 0xa8, 0xbc, 0x13, 0x0d, 0xac, 0x3d,
  0xb0, 0x8e, 0x4b, 0xbe, 0x22, 0xa2, 0x8d, 0xbe, 0x8c, 0xb1, 0x5a, 0xbe,
  0x63, 0xa8, 0xfc, 0xbe, 0x7c, 0xad, 0x90, 0x3e, 0xed, 0x4f, 0x10, 0x3d,
  0x8e, 0x31, 0xc5, 0x3e, 0xf4, 0xb3, 0xbc, 0x3d, 0x78, 0xc0, 0xdd, 0x3d,
  0x5a, 0x9a, 0xa5, 0x3e, 0xee, 0x07, 0x62, 0x3d, 0x32, 0x8c, 0x11, 0x3e,
  0xb8, 0x94, 0x44, 0x3c, 0x89, 0x4f, 0xcf, 0xbc, 0xe0, 0x1c, 0x4f, 0x3d,
  0x9c, 0x0c, 0x99, 0xbd, 0x63, 0x7a, 0xa4, 0xbc, 0x6d, 0x5b, 0xdb, 0x3d,
  0x9a, 0xed, 0x1c, 0xbd, 0xb6, 0x4b, 0xfa, 0x3d, 0x21, 0x49, 0x8c, 0x3d,
  0x8e, 0xcf, 0xc7, 0xbd, 0x05, 0xea, 0x6a, 0x3c, 0x85, 0x75, 0x72, 0xbb,
  0x14, 0xa8, 0xe5, 0xbb, 0x6e, 0x36, 0xf1, 0xbd, 0xe1, 0xd3, 0xb0, 0xbe,
  0x2a, 0x5e, 0xf4, 0xbe, 0x02, 0xf2, 0x06, 0xbe, 0x24, 0x5f, 0x92, 0x3e,
  0xcf, 0xca, 0xe2, 0x3d, 0x77, 0xa6, 0x8a, 0x3e, 0x62, 0xaa, 0xb9, 0x3d,
  0x86, 0x82, 0xcd, 0x3e, 0x8a, 0xe0, 0x64, 0x3d, 0x13, 0x1d, 0x1f, 0x3d,
  0xdd, 0xfe, 0x99, 0x3b, 0x93, 0xff, 0xe9, 0x3e, 0x12, 0xd7, 0xbe, 0x3e,
  0xce, 0x9d, 0x7b, 0x3c, 0x83, 0x35, 0xc3, 0xbe, 0xdd, 0x5f, 0xd6, 0xbd,
  0xe4, 0x41, 0x91, 0x3d, 0xf4, 0x77, 0xc6, 0xbd, 0x57, 0x87, 0x82, 0xbe,
  0x9a, 0x94, 0x58, 0xbd, 0xcc, 0x64, 0x22, 0x3d, 0xd0, 0x1f, 0xe7, 0xbc,
  0x54, 0x9a, 0xfe, 0xbd, 0xd6, 0x1c, 0x01, 0x3f, 0x7b, 0x16, 0xdd, 0x3e,
  0xbb, 0xf4, 0xa0, 0xbd, 0xa2, 0xed, 0x86, 0xbe, 0x0c, 0xa7, 0x62, 0xbe,
  0x80, 0x34, 0x6a, 0x3e, 0x9b, 0xa5, 0x7f, 0xbe, 0x46, 0x54, 0x44, 0xbe,
  0xad, 0x65, 0x11, 0xbd, 0xe5, 0xeb, 0xab, 0x3e, 0xac, 0x03, 0x47, 0xbd,
  0xa4, 0xb0, 0xfe, 0xbd, 0xb4, 0x88, 0x7f, 0x3e, 0x77, 0xdb, 0x49, 0x3d,
  0x2b, 0xc2, 0xa3, 0x3d, 0xcd, 0xd7, 0x81, 0x3d, 0xd8, 0x3e, 0x2a, 0x3e,
  0x77, 0xe5, 0x21, 0xbe, 0xe2, 0x9c, 0x87, 0xbd, 0x73, 0x8b, 0xc7, 0x3d,
  0x47, 0xe1, 0x30, 0x3e, 0x37, 0xea, 0x99, 0xbe, 0x08, 0x52, 0x87, 0x3e,
  0xf8, 0xdf, 0xa3, 0x3d, 0x2a, 0xab, 0x75, 0xbd, 0x45, 0x98, 0x72, 0x3e,
  0x93, 0xb3, 0x0b, 0x3d, 0x0d, 0x74, 0x4e, 0x3e, 0x41, 0xcc, 0x2d, 0xbe,
  0x07, 0xb0, 0x0e, 0xbe, 0xd4, 0x9c, 0x84, 0x3e, 0x06, 0x8e, 0xa5, 0xbe,
  0x29, 0x69, 0x52, 0x3d, 0xe2, 0xe0, 0xff, 0xff, 0x10, 0x00, 0x00, 0x00,
  0x07, 0x00, 0x00, 0x00, 0x1c, 0x00, 0x00, 0x00, 0x38, 0x00, 0x00, 0x00,
  0x04, 0x00, 0x00, 0x00, 0x08, 0x00, 0x00, 0x00, 0x04, 0x00, 0x00, 0x00,
  0x03, 0x00, 0x00, 0x00, 0x01, 0x00, 0x00, 0x00, 0x18, 0x00, 0x00, 0x00,
  0x73, 0x65, 0x71, 0x75, 0x65, 0x6e, 0x74, 0x69, 0x61, 0x6c, 0x2f, 0x63,
  0x6f, 0x6e, 0x76, 0x32, 0x64, 0x2f, 0x43, 0x6f, 0x6e, 0x76, 0x32, 0x44,
  0x00, 0x00, 0x00, 0x00, 0xdc, 0xe0, 0xff, 0xff, 0xd2, 0xe1, 0xff, 0xff,
  0x04, 0x00, 0x00, 0x00, 0xc0, 0x00, 0x00, 0x00, 0xee, 0x39, 0xc7, 0x3d,
  0x99, 0x77, 0x72, 0xbe, 0xe0, 0xef, 0xd9, 0xbe, 0x0d, 0x31, 0x15, 0x3e,
  0x2e, 0x73, 0xae, 0xbe, 0x5d, 0xf8, 0xa4, 0x3e, 0xb2, 0xe0, 0x60, 0xbe,
  0x8f, 0x6c, 0xce, 0xbc, 0xbf, 0x07, 0x94, 0xbc, 0x4b, 0x62, 0x52, 0x3e,
  0x0c, 0x7b, 0xbc, 0x3d, 0x4c, 0x4a, 0x5f, 0xbe, 0x50, 0xfc, 0x62, 0xbe,
  0xdf, 0xee, 0x86, 0x3d, 0xfd, 0x0d, 0xb7, 0x3e, 0x46, 0xc0, 0x34, 0x3d,
  0x2f, 0x32, 0x15, 0x3e, 0x0e, 0x96, 0x52, 0xbe, 0x86, 0x5e, 0xa5, 0xbe,
  0x79, 0xbe, 0x3f, 0x3e, 0xe9, 0x1b, 0xa3, 0xbe, 0xdc, 0x81, 0xb0, 0x3e,
  0x9a, 0x93, 0xe0, 0x3e, 0xdb, 0x37, 0x49, 0x3d, 0x23, 0xa0, 0x87, 0xbd,
  0xd1, 0x8b, 0x6b, 0x3e, 0x0e, 0x40, 0x55, 0x3d, 0xf9, 0x51, 0x81, 0xbe,
  0x37, 0xf5, 0x4e, 0xbe, 0x06, 0x79, 0xd2, 0x3d, 0x5f, 0x0d, 0xb4, 0x3e,
  0x7d, 0x5a, 0x84, 0xbe, 0x58, 0x1f, 0xb9, 0x3d, 0xf6, 0xc9, 0x08, 0xbe,
  0x38, 0x0b, 0x47, 0x3d, 0xff, 0xe9, 0xc8, 0x3d, 0xf4, 0x09, 0x67, 0xbe,
  0x34, 0xe0, 0x2e, 0x3e, 0xc2, 0x72, 0xdc, 0xbe, 0x65, 0x44, 0xcc, 0x3d,
  0x6b, 0x38, 0xbe, 0xbd, 0x6b, 0x41, 0x8c, 0x3e, 0x50, 0x1d, 0x81, 0x3d,
  0xa4, 0xbf, 0x27, 0xbe, 0x45, 0x3c, 0x02, 0xbe, 0xa4, 0x74, 0x4b, 0x3d,
  0x05, 0xa2, 0xa3, 0x3e, 0x6c, 0xef, 0x79, 0x3e, 0xfa, 0xe1, 0xff, 0xff,
  0x10, 0x00, 0x00, 0x00, 0x06, 0x00, 0x00, 0x00, 0x14, 0x00, 0x00, 0x00,
  0x30, 0x00, 0x00, 0x00, 0x02, 0x00, 0x00, 0x00, 0x03, 0x00, 0x00, 0x00,
  0x10, 0x00, 0x00, 0x00, 0x19, 0x00, 0x00, 0x00, 0x73, 0x65, 0x71, 0x75,
  0x65, 0x6e, 0x74, 0x69, 0x61, 0x6c, 0x2f, 0x64, 0x65, 0x6e, 0x73, 0x65,
  0x5f, 0x31, 0x2f, 0x4d, 0x61, 0x74, 0x4d, 0x75, 0x6c, 0x00, 0x00, 0x00,
  0xec, 0xe1, 0xff, 0xff, 0xe2, 0xe2, 0xff, 0xff, 0x04, 0x00, 0x00, 0x00,
  0x00, 0x1c, 0x00, 0x00, 0xea, 0x5c, 0x11, 0xbe, 0x29, 0xa9, 0x8a, 0x3e,
  0xf6, 0x99, 0x76, 0x3d, 0x11, 0x65, 0xcf, 0xbd, 0x9d, 0x9c, 0x67, 0x3e,
  0x82, 0x36, 0x1c, 0xbe, 0x79, 0x39, 0xb4, 0x3e, 0x69, 0xa2, 0x90, 0xbe,
  0xf5, 0xfe, 0x3c, 0xbe, 0xcd, 0x35, 0xdd, 0x3d, 0x5b, 0x66, 0x0f, 0xbf,
  0xa6, 0xc8, 0xaa, 0xbe, 0x8c, 0x7d, 0x49, 0x3e, 0x0c, 0xbb, 0x98, 0x3e,
  0xd0, 0x77, 0x75, 0x3d, 0x18, 0x6f, 0x89, 0x3d, 0xb3, 0x4a, 0x79, 0x3d,
  0x60, 0x35, 0x00, 0x3e, 0x05, 0x09, 0xfd, 0xbe, 0xd4, 0xae, 0x08, 0xbd,
  0x59, 0x2f, 0xca, 0xbe, 0xa5, 0x34, 0xcb, 0x3e, 0x7a, 0x0e, 0x8f, 0x3e,
  0xd4, 0xe6, 0x94, 0xbd, 0x8f, 0x72, 0x1b, 0x3e, 0x7e, 0xad, 0x13, 0xbd,
  0xc4, 0x4c, 0x27, 0xbe, 0xc8, 0x18, 0x1b, 0xbe, 0x00, 0x3b, 0x84, 0xbe,
  0x41, 0xa5, 0x07, 0x3e, 0x8d, 0x2d, 0x38, 0x3e, 0xb0, 0xa0, 0x71, 0xbc,
  0x10, 0xff, 0x92, 0x3d, 0x44, 0xcb, 0xac, 0x3d, 0x17, 0xf7, 0x4b, 0xbf,
  0xf7, 0xc3, 0x22, 0xbf, 0x7b, 0x1b, 0x10, 0xbe, 0x76, 0xff, 0x14, 0x3e,
  0x45, 0x77, 0x75, 0xbd, 0x54, 0x1e, 0x37, 0x3c, 0x9f, 0x61, 0x6a, 0xbe,
  0xeb, 0xcb, 0x68, 0xbd, 0x35, 0xd4, 0x16, 0xbe, 0x2f, 0xf1, 0xb3, 0xbd,
  0x98, 0xa9, 0x02, 0xbe, 0x83, 0xc1, 0xd2, 0xbe, 0xb9, 0x7e, 0x59, 0xbc,
  0x87, 0xff, 0x12, 0xbf, 0x84, 0x98, 0x71, 0xbe, 0xb7, 0xae, 0x50, 0xbd,
  0x2a, 0xa9, 0x23, 0xbf, 0x4a, 0x7f, 0x46, 0xbf, 0x84, 0xd6, 0x7f, 0x3c,
  0xf7, 0x72, 0xc8, 0xbe, 0x3b, 0x12, 0xeb, 0xbd, 0xa4, 0x2a, 0x5b, 0x3d,
  0x38, 0x75, 0x55, 0xbe, 0x35, 0x3e, 0x7c, 0xbd, 0xde, 0x1c, 0x36, 0x3d,
  0x5b, 0xb4, 0x9f, 0xbd, 0xf5, 0xee, 0x09, 0xbe, 0xfe, 0x7a, 0xf7, 0xbe,
  0x91, 0x47, 0x13, 0xbe, 0x60, 0x35, 0xf5, 0xbe, 0xd7, 0x7e, 0x0f, 0xbe,
  0xd7, 0xab, 0xfa, 0x3d, 0x52, 0xba, 0x57, 0xbd, 0x86, 0x7d, 0xfb, 0xbd,
  0xa7, 0x7f, 0x88, 0x3e, 0xf4, 0x4e, 0x9f, 0xbe, 0x97, 0x8b, 0xc9, 0x3e,
  0xca, 0x88, 0xd2, 0xbd, 0x8a, 0x14, 0x88, 0xbd, 0xe2, 0x6e, 0x1d, 0xbd,
  0x82, 0xfa, 0x42, 0x3c, 0x81, 0xe8, 0x7d, 0xbd, 0x91, 0x99, 0x85, 0xbd,
  0x75, 0x3f, 0xf8, 0x3e, 0x7a, 0x74, 0x8c, 0x3d, 0x15, 0x70, 0xf2, 0xbc,
  0xa4, 0x85, 0x6d, 0x3c, 0x73, 0xc9, 0x46, 0xbb, 0xaf, 0x36, 0x7d, 0xbd,
  0x45, 0x58, 0xd4, 0xbd, 0xb7, 0xf1, 0x85, 0x3e, 0x14, 0x1a, 0x8c, 0xbe,
  0xf7, 0x3e, 0xf8, 0x3e, 0xac, 0xb7, 0x96, 0xbe, 0xed, 0x56, 0xa8, 0x3c,
  0x71, 0x92, 0x78, 0x3c, 0xb1, 0x29, 0x9d, 0xbe, 0x37, 0xfd, 0x19, 0xbe,
  0x54, 0x87, 0xd4, 0x3d, 0x18, 0x7c, 0x73, 0x3e, 0xe9, 0x57, 0x41, 0x3e,
  0x9e, 0x98, 0xa6, 0x3d, 0x1d, 0xb1, 0x98, 0xbd, 0xcd, 0x8b, 0x90, 0x3e,
  0x9c, 0xe6, 0xac, 0x3c, 0x3a, 0x03, 0xe4, 0x3b, 0x42, 0x77, 0xb4, 0xbc,
  0x35, 0xeb, 0xa9, 0x3c, 0x6f, 0xc1, 0x1b, 0x3d, 0x3f, 0x9f, 0xe8, 0xbd,
  0x85, 0xf9, 0x19, 0xbd, 0xb5, 0x8d, 0x23, 0x3d, 0xf5, 0x76, 0xa2, 0xbd,
  0x2b, 0xbd, 0x88, 0x3d, 0x14, 0x59, 0x6c, 0x3d, 0xf9, 0x5c, 0x2c, 0x3e,
  0xec, 0x0b, 0x11, 0x3e, 0xc5, 0x09, 0x48, 0x3e, 0x3d, 0x51, 0x87, 0xbe,
  0xd9, 0x76, 0x59, 0x3e, 0x1c, 0x52, 0x80, 0xbd, 0xc8, 0xd3, 0x8e, 0xbe,
  0x54, 0xa8, 0xe6, 0xbe, 0x54, 0xd0, 0x7f, 0x3e, 0x52, 0xc8, 0x5b, 0x3d,
  0xe9, 0x24, 0x64, 0xbe, 0x85, 0x17, 0x75, 0xbe, 0xf6, 0x7f, 0x08, 0x3c,
  0x9f, 0xcc, 0x8b, 0x3e, 0xa4, 0xb1, 0x87, 0x3d, 0x94, 0x24, 0x4c, 0xbe,
  0xf4, 0xee, 0x19, 0xbf, 0xba, 0x60, 0x2b, 0x3e, 0xc8, 0x2d, 0x06, 0xbf,
  0x0c, 0xb4, 0x41, 0x3e, 0x39, 0x71, 0x24, 0x3e, 0xb1, 0xa8, 0xcd, 0xbe,
  0x9a, 0x8a, 0x07, 0xbf, 0x9e, 0x4e, 0x3c, 0xbc, 0x86, 0x5d, 0x7b, 0x3d,
  0x46, 0xc0, 0xdc, 0x3e, 0x75, 0xa4, 0xe3, 0xbd, 0x27, 0xba, 0x2f, 0xbe,
  0x8a, 0x68, 0xb6, 0x3d, 0xf8, 0x63, 0x30, 0xbe, 0xa3, 0xa1, 0x1c, 0x3d,
  0x23, 0x92, 0xa3, 0x3e, 0xfb, 0x15, 0x5b, 0x3c, 0x17, 0x6a, 0xcf, 0xbe,
  0xbe, 0xfb, 0x80, 0xbe, 0x35, 0xa3, 0x0c, 0x3e, 0xf3, 0xf2, 0x68, 0x3e,
  0x18, 0x69, 0xaa, 0xbe, 0xef, 0xd2, 0xe2, 0xbe, 0xd7, 0xc7, 0x5a, 0xbe,
  0x34, 0xed, 0xc4, 0x3d, 0x06, 0x04, 0x4a, 0x3e, 0xf0, 0x98, 0x1d, 0x3d,
  0x26, 0x05, 0xa8, 0x3c, 0x1b, 0x82, 0xa1, 0x3c, 0x2a, 0xc2, 0xf7, 0xbd,
  0x44, 0x5f, 0x95, 0x3d, 0x11, 0xf9, 0xa7, 0x3e, 0xf6, 0x70, 0x76, 0xbd,
  0x34, 0x0a, 0x18, 0xbf, 0x93, 0x41, 0xbd, 0xbe, 0x23, 0x11, 0xcd, 0x3d,
  0x58, 0x7c, 0x7e, 0x3d, 0xd3, 0xce, 0x32, 0xbe, 0xbc, 0xc5, 0xa7, 0xbe,
  0x23, 0xae, 0x12, 0xbe, 0xe2, 0x64, 0x14, 0x3e, 0xd6, 0x78, 0x9a, 0x3e,
  0x8e, 0x9e, 0x2c, 0xbe, 0xfc, 0x51, 0xb9, 0xbd, 0x1d, 0x97, 0x8d, 0x3d,
  0x5f, 0xa4, 0x28, 0x3e, 0x34, 0x39, 0x1f, 0x3d, 0x5c, 0x9b, 0x11, 0x3e,
  0x29, 0x09, 0xe0, 0xbd, 0xa8, 0x0e, 0x06, 0xbf, 0x3e, 0x33, 0x43, 0xbc,
  0x77, 0x70, 0x05, 0xbd, 0x38, 0xa1, 0x42, 0x3e, 0x16, 0xf7, 0xf2, 0xbd,
  0x30, 0x43, 0x9d, 0xbd, 0x3d, 0xd1, 0x7f, 0xbe, 0xb8, 0xca, 0x82, 0xbd,
  0xd3, 0x82, 0xc4, 0x3e, 0x26, 0x9f, 0x02, 0x3d, 0xc7, 0xb4, 0x47, 0xbe,
  0x1c, 0x4a, 0x0b, 0x3e, 0x9c, 0xca, 0xdc, 0xbc, 0x96, 0x9f, 0x9c, 0xbb,
  0x3d, 0x26, 0xa8, 0x3d, 0xc0, 0xc7, 0x8f, 0xbd, 0xb5, 0x17, 0x11, 0xbf,
  0x37, 0x1b, 0x0a, 0xbb, 0xd5, 0x08, 0x92, 0x3d, 0x61, 0x47, 0xfa, 0xbd,
  0xb1, 0x57, 0xee, 0xbe, 0x23, 0x42, 0xb5, 0xbe, 0x49, 0xee, 0xd9, 0xbe,
  0xb1, 0x59, 0xf8, 0xbe, 0x96, 0x78, 0xd0, 0x3d, 0x9f, 0xa7, 0x07, 0xbe,
  0x75, 0x69, 0x78, 0xbe, 0x12, 0xa2, 0xad, 0x3d, 0x73, 0xb3, 0x35, 0xbe,
  0x59, 0x58, 0x11, 0x3d, 0x57, 0x12, 0x53, 0x3e, 0xb7, 0x2e, 0xbe, 0xbe,
  0x70, 0x2b, 0x0a, 0xbe, 0x88, 0x0b, 0xc2, 0xbe, 0x65, 0xc9, 0x49, 0xbd,
  0x08, 0x1b, 0x09, 0x3e, 0xf0, 0x53, 0xf0, 0xbd, 0x87, 0xd6, 0xb4, 0xbd,
  0x97, 0x4a, 0xdd, 0x3d, 0x09, 0xa5, 0xf1, 0xbd, 0x7c, 0x0d, 0xfe, 0x3d,
  0x01, 0xb7, 0x7e, 0x3c, 0x9e, 0xec, 0x48, 0xbe, 0x62, 0x94, 0xed, 0xbb,
  0xd0, 0xdf, 0x18, 0x3e, 0x49, 0xc3, 0x99, 0x3d, 0x08, 0xe2, 0x44, 0xbe,
  0x33, 0xb6, 0x38, 0xbd, 0xdf, 0xf0, 0xb5, 0x3c, 0xd2, 0x4b, 0x36, 0xbe,
  0x9d, 0x5c, 0x97, 0xbe, 0x13, 0x14, 0x50, 0x3d, 0x50, 0x38, 0x41, 0xbd,
  0x5a, 0x7b, 0x93, 0xbd, 0xf5, 0x20, 0x0f, 0xbe, 0xc4, 0xe9, 0x94, 0x3c,
  0x3c, 0xa1, 0x04, 0xbe, 0xa2, 0xd7, 0x6d, 0xbe, 0xb4, 0x2e, 0xf0, 0x3d,
  0xc9, 0x93, 0x34, 0x3d, 0x65, 0x3f, 0xff, 0xbb, 0x1b, 0xae, 0x54, 0xbc,
  0x28, 0xee, 0x00, 0xbe, 0xc6, 0x8f, 0xd4, 0xbb, 0xd8, 0xa0, 0x20, 0xbd,
  0x61, 0x7d, 0x64, 0xbe, 0x03, 0xe9, 0x5a, 0xbe, 0xba, 0x76, 0xeb, 0xbd,
  0xca, 0x3b, 0x44, 0xbd, 0x65, 0x7e, 0xee, 0xbd, 0x04, 0xe0, 0x87, 0xbd,
  0xbd, 0x03, 0x54, 0xbe, 0x90, 0x38, 0x60, 0x3d, 0x19, 0x76, 0xaa, 0x3d,
  0x86, 0xec, 0x8c, 0xbd, 0xcc, 0xa1, 0x21, 0xbe, 0x42, 0x7c, 0x55, 0xbe,
  0x1f, 0x37, 0x1f, 0x3d, 0xb9, 0x4f, 0x67, 0xbe, 0x1f, 0x87, 0x8c, 0x3d,
  0x59, 0xe2, 0xea, 0xbd, 0xb1, 0x2a, 0xa5, 0xbd, 0x47, 0x27, 0x9f, 0xbe,
  0xf7, 0x01, 0x54, 0xbe, 0xe3, 0xa3, 0x4b, 0xbe, 0x96, 0xf7, 0xd6, 0x3c,
  0x5a, 0x12, 0x95, 0xbd, 0xce, 0x01, 0xe9, 0xbd, 0x41, 0x3a, 0x32, 0xbe,
  0xd2, 0xc2, 0x3f, 0xbe, 0xb2, 0x84, 0x5f, 0xbb, 0x7d, 0x8f, 0xea, 0x3b,
  0x12, 0xfd, 0xb0, 0xbd, 0x1c, 0x6b, 0xd9, 0x3c, 0xdf, 0x77, 0x66, 0xbe,
  0x65, 0xa1, 0x9e, 0xbc, 0xde, 0x38, 0xe9, 0x3d, 0x3c, 0x7f, 0x4b, 0x3d,
  0x85, 0xaa, 0xde, 0x3d, 0xcd, 0x76, 0x12, 0xbe, 0x11, 0x84, 0x24, 0xbd,
  0xfb, 0x6d, 0x57, 0xbe, 0x7b, 0xfd, 0xd8, 0xbd, 0xf7, 0x85, 0x0a, 0xbe,
  0x31, 0xbb, 0xb1, 0xba, 0x4a, 0x11, 0x5d, 0xbe, 0x7a, 0x3b, 0x31, 0xbe,
  0x14, 0xda, 0x5e, 0xbe, 0x8f, 0xea, 0x4e, 0xbe, 0xe5, 0x04, 0xfb, 0xbd,
  0x3a, 0x7d, 0xfb, 0xbd, 0x17, 0x5c, 0x74, 0x3d, 0x1b, 0x38, 0x32, 0x3e,
  0xbc, 0x1b, 0x6b, 0x39, 0xeb, 0x8a, 0x91, 0xbe, 0x91, 0x40, 0x8f, 0xbd,
  0x2b, 0xf4, 0x60, 0xbd, 0xcf, 0x26, 0x06, 0xbe, 0xb3, 0x09, 0x64, 0x3d,
  0xb1, 0x78, 0x68, 0xbd, 0x81, 0x85, 0xa7, 0x3c, 0xf1, 0xf2, 0x9f, 0xba,
  0xd4, 0xe7, 0x07, 0x3e, 0x50, 0xb7, 0xef, 0x3c, 0xa9, 0x60, 0x2f, 0xbe,
  0x11, 0xc0, 0xf1, 0x3b, 0x94, 0x6d, 0x66, 0xbe, 0x38, 0xc3, 0xea, 0x3c,
  0x33, 0x59, 0xc7, 0x3d, 0x81, 0x20, 0x5a, 0x3d, 0xc5, 0x12, 0x01, 0xbe,
  0x94, 0x41, 0x54, 0xbe, 0xad, 0xef, 0x03, 0xbe, 0xfa, 0x04, 0x43, 0xbd,
  0xd8, 0x5f, 0x95, 0xbc, 0xa2, 0x77, 0x97, 0x3d, 0xfc, 0x5d, 0x4c, 0xbe,
  0xfd, 0xb4, 0x74, 0xbe, 0xe7, 0xfb, 0x56, 0xbd, 0xb3, 0x9e, 0x0a, 0xbe,
  0xc0, 0x2f, 0x56, 0xbe, 0x14, 0x26, 0x97, 0xbc, 0x48, 0xc0, 0x38, 0x3c,
  0x33, 0x32, 0x0d, 0xbe, 0x35, 0xb6, 0x0d, 0xbe, 0xaa, 0xb1, 0xeb, 0x3d,
  0x89, 0xe6, 0x12, 0xbd, 0x79, 0xa7, 0x19, 0x3d, 0x64, 0x43, 0xaf, 0x3c,
  0x86, 0x67, 0xd3, 0xbd, 0xf1, 0x40, 0x53, 0x3d, 0x79, 0x67, 0x35, 0x3d,
  0x15, 0x37, 0x32, 0xbd, 0xb5, 0x70, 0x73, 0xbe, 0x85, 0x71, 0x50, 0xbe,
  0xd2, 0xaa, 0xe0, 0x3d, 0x10, 0x01, 0xbb, 0xbd, 0x07, 0xea, 0x0a, 0xbe,
  0x00, 0xde, 0x60, 0xbe, 0x47, 0x9a, 0xba, 0xbc, 0xf7, 0x5e, 0x8b, 0xbd,
  0x53, 0x8c, 0xa7, 0xbd, 0x16, 0xde, 0x04, 0xbd, 0x3f, 0x48, 0x3a, 0x3e,
  0x16, 0xe0, 0x23, 0x3d, 0x5e, 0x3d, 0x0c, 0x3d, 0x4d, 0xee, 0x69, 0x3e,
  0x37, 0xdc, 0x54, 0xbe, 0x0f, 0xd0, 0x83, 0x3e, 0xee, 0x46, 0x83, 0xbe,
  0x24, 0x1f, 0x4d, 0xbe, 0x4a, 0xfa, 0x38, 0x3a, 0x63, 0x5b, 0xcc, 0xbe,
  0x55, 0xa1, 0x89, 0xbe, 0x42, 0x66, 0x2d, 0x3e, 0xdf, 0xf2, 0x62, 0x3e,
  0xb8, 0x89, 0xfc, 0x3d, 0x61, 0xbe, 0x7e, 0xbb, 0x35, 0xbe, 0xdd, 0xbd,
  0xc0, 0xcc, 0xb2, 0x3d, 0x9f, 0xac, 0x18, 0xbe, 0x20, 0x9f, 0x15, 0x3e,
  0xae, 0xec, 0x0e, 0x3e, 0x31, 0x45, 0xfc, 0x3e, 0xc0, 0xe5, 0x80, 0x3e,
  0xa3, 0xea, 0xb7, 0xbd, 0x07, 0xc9, 0x8c, 0x3d, 0xc7, 0x40, 0xba, 0xbd,
  0x4a, 0x9b, 0x4f, 0xbd, 0xaa, 0xa0, 0x4d, 0xbd, 0x9b, 0x03, 0x28, 0xbd,
  0x89, 0x73, 0x67, 0x3c, 0x4e, 0xc1, 0x9e, 0xbc, 0x22, 0xa0, 0x3f, 0x3d,
  0x51, 0x7c, 0x2e, 0x3e, 0x29, 0xbc, 0x43, 0x3e, 0x4d, 0xe6, 0x20, 0xbf,
  0x97, 0x9c, 0x11, 0xbf, 0xff, 0xe5, 0x92, 0xbe, 0x88, 0xce, 0x90, 0x3e,
  0x16, 0x52, 0x89, 0xbe, 0xf0, 0x29, 0x86, 0x3e, 0x8f, 0xd9, 0x05, 0xbd,
  0xc4, 0xd9, 0x45, 0xbd, 0xbd, 0xe8, 0x5a, 0x3e, 0x91, 0xd5, 0xe9, 0xbc,
  0x6c, 0x5e, 0x06, 0xbe, 0x91, 0xc5, 0x7a, 0xbe, 0xba, 0x82, 0x56, 0xbe,
  0x33, 0xcc, 0x6e, 0xbe, 0x99, 0x54, 0x4d, 0xbe, 0x4b, 0x8f, 0x3d, 0xbd,
  0x48, 0x41, 0x2d, 0xbf, 0x34, 0xfa, 0x38, 0xbf, 0x88, 0xb6, 0x1b, 0x3e,
  0x78, 0x0c, 0x64, 0x3d, 0xb8, 0x28, 0x0c, 0xbe, 0x97, 0x44, 0xc4, 0xbc,
  0x2f, 0x6a, 0x82, 0xbe, 0x7c, 0x8a, 0x16, 0xbe, 0x0f, 0x1b, 0xd3, 0x3d,
  0x6b, 0xea, 0x78, 0xbd, 0xc2, 0x9a, 0x03, 0x3d, 0x24, 0xe8, 0xcc, 0xbe,
  0xbe, 0xbf, 0xc5, 0xbe, 0xac, 0xb9, 0x93, 0xbe, 0x96, 0x82, 0x00, 0xbe,
  0x52, 0x47, 0xa5, 0xbc, 0xc6, 0x92, 0x49, 0xbd, 0x7f, 0xd6, 0xe8, 0xbd,
  0x38, 0xf6, 0x2e, 0x3e, 0x15, 0x54, 0xc2, 0x3d, 0xc7, 0x9e, 0x10, 0x3e,
  0x0f, 0xee, 0x58, 0x3d, 0x53, 0x2a, 0x2d, 0xbe, 0x10, 0x01, 0x3f, 0xbe,
  0xcf, 0xd1, 0x08, 0xbd, 0xda, 0x64, 0x66, 0xbc, 0x6d, 0x37, 0xd8, 0x38,
  0x0a, 0x83, 0xa2, 0x3e, 0x87, 0x41, 0x12, 0x3d, 0x38, 0x4f, 0xe4, 0xbc,
  0x75, 0xc1, 0x85, 0xbd, 0xaf, 0x9e, 0xd9, 0xbd, 0xa3, 0x4e, 0x26, 0x3c,
  0x1c, 0x89, 0x49, 0xbc, 0x5c, 0xc3, 0x8f, 0x3e, 0x1f, 0xe3, 0x99, 0xbd,
  0xd2, 0x2c, 0xc8, 0x3e, 0x20, 0x2a, 0x3a, 0xbe, 0xce, 0x5e, 0xdc, 0xbd,
  0xd7, 0xfe, 0x3d, 0xbd, 0xfc, 0x90, 0x44, 0xbe, 0x7d, 0x4c, 0xc6, 0xbd,
  0x7f, 0x25, 0x0d, 0x3e, 0xb6, 0x86, 0x84, 0x3e, 0x56, 0x56, 0x50, 0x3d,
  0x2d, 0x83, 0xe1, 0x3d, 0x7f, 0x30, 0x54, 0x3c, 0x70, 0x05, 0x2d, 0x3e,
  0xd7, 0xb9, 0x3e, 0x3d, 0x6a, 0xad, 0x21, 0x3d, 0x58, 0xf1, 0x77, 0xba,
  0x80, 0x5f, 0x8f, 0xbb, 0x2c, 0x79, 0xc5, 0x3c, 0x07, 0x35, 0x41, 0xbe,
  0x0c, 0x75, 0x14, 0xbd, 0x32, 0xc3, 0x73, 0xbd, 0x62, 0x28, 0xde, 0x3d,
  0xf8, 0x6c, 0xdf, 0x3d, 0x15, 0x54, 0x26, 0x3e, 0x04, 0x8c, 0x13, 0x3e,
  0x31, 0x96, 0xd9, 0x3d, 0xb9, 0xc9, 0x9f, 0x3d, 0x0e, 0xee, 0x34, 0xbe,
  0x0c, 0x3b, 0x75, 0x3e, 0x8c, 0x4f, 0xa0, 0x3a, 0x58, 0x78, 0x1b, 0x3e,
  0x1c, 0x2b, 0x9f, 0xbe, 0x1f, 0x35, 0x5d, 0x3d, 0x7c, 0x63, 0x02, 0xbe,
  0x17, 0xb8, 0x36, 0xbe, 0xc6, 0x4b, 0x50, 0xbe, 0x4e, 0x6b, 0x11, 0xbe,
  0x0e, 0x59, 0xd0, 0xbd, 0xa5, 0x19, 0x23, 0xbe, 0xad, 0x5b, 0xa8, 0x3e,
  0xca, 0xc4, 0x98, 0xbc, 0x4f, 0xc4, 0x29, 0xbc, 0xb1, 0x2e, 0x1c, 0xbe,
  0xa4, 0xf1, 0x66, 0x3c, 0x4d, 0x64, 0xe8, 0x3d, 0x60, 0xf7, 0xbb, 0x3c,
  0xa6, 0x46, 0x5c, 0xbd, 0x86, 0x28, 0x82, 0xbe, 0xc3, 0x16, 0x17, 0xbe,
  0xd0, 0x36, 0x1d, 0xbd, 0xed, 0x1f, 0x11, 0xbd, 0xc2, 0x5b, 0x11, 0xbe,
  0x11, 0x5a, 0x42, 0xbe, 0x8a, 0x9a, 0xa9, 0xbe, 0x04, 0x0d, 0x80, 0xbe,
  0xc9, 0x9f, 0x28, 0x3e, 0xa1, 0xcc, 0x81, 0xbe, 0xcc, 0x47, 0x83, 0x3e,
  0xcd, 0x80, 0x4c, 0x3e, 0xa2, 0x0d, 0xe0, 0xbd, 0x19, 0x1a, 0x10, 0xbe,
  0xc1, 0x5e, 0x41, 0x3e, 0xa5, 0xde, 0x6e, 0x3e, 0xf5, 0xf3, 0x8f, 0xbe,
  0xec, 0x04, 0x6f, 0xbe, 0x3e, 0xbc, 0xd5, 0x3c, 0x74, 0x38, 0x8e, 0xbc,
  0xf3, 0x9b, 0xcb, 0x3d, 0x1c, 0x3d, 0xfe, 0xbd, 0x0c, 0x55, 0x83, 0xbd,
  0xa7, 0xf7, 0x17, 0xbe, 0x58, 0x00, 0x8b, 0x3e, 0x35, 0x95, 0x61, 0x3d,
  0x2a, 0x0b, 0x84, 0x3e, 0x7f, 0xf6, 0xe0, 0xbc, 0xce, 0x1f, 0x43, 0xbe,
  0x76, 0xa1, 0xb1, 0x3e, 0xdf, 0xbb, 0x2d, 0x3d, 0x76, 0x18, 0x23, 0x3e,
  0x4b, 0x12, 0xb9, 0x3d, 0xca, 0xb3, 0x34, 0x3d, 0x4b, 0x7b, 0x95, 0x3a,
  0x9e, 0xae, 0x55, 0xbd, 0x8e, 0x7f, 0x12, 0xbd, 0x8f, 0x93, 0x70, 0xbe,
  0x0d, 0x35, 0x97, 0xbe, 0x4c, 0xd4, 0x46, 0xbd, 0x3c, 0xb5, 0xf7, 0x3c,
  0x7d, 0xef, 0x41, 0xbd, 0xbc, 0x34, 0x02, 0x3e, 0x6a, 0x14, 0xde, 0x3c,
  0x0f, 0xe2, 0x89, 0xbe, 0x94, 0xde, 0x17, 0xbc, 0xbd, 0xdf, 0x6e, 0x3d,
  0xa0, 0xa6, 0x23, 0x3e, 0x81, 0x49, 0x06, 0xbe, 0xe9, 0x5f, 0x24, 0xbe,
  0x59, 0x1e, 0xc0, 0x3d, 0x7c, 0xff, 0x13, 0x3e, 0x5d, 0xb0, 0x8e, 0xbe,
  0xbb, 0x18, 0x3e, 0xbe, 0x8e, 0x32, 0x8d, 0x3c, 0x02, 0xc4, 0xec, 0xbe,
  0x9d, 0xf3, 0x1f, 0x3e, 0x2f, 0xcb, 0x35, 0x3e, 0x5b, 0x69, 0xb8, 0x3e,
  0x81, 0x4d, 0x9f, 0x3d, 0xef, 0x3f, 0x63, 0xbe, 0x17, 0x02, 0x5f, 0x3d,
  0x82, 0xe4, 0xc4, 0xbd, 0xd2, 0x0e, 0x30, 0xbc, 0x35, 0xa5, 0x98, 0xbe,
  0x76, 0x79, 0xb6, 0xbe, 0x02, 0x94, 0x42, 0xbd, 0xab, 0x55, 0x08, 0xbd,
  0xad, 0xb4, 0x86, 0x3d, 0x50, 0xc5, 0xae, 0xbe, 0xbf, 0xbe, 0xd8, 0xbe,
  0x54, 0x45, 0x05, 0xbe, 0xa3, 0x2e, 0x89, 0x3d, 0x59, 0x7e, 0x6f, 0xbe,
  0xdb, 0x59, 0xb0, 0x3c, 0xe0, 0x45, 0x36, 0x3d, 0x9c, 0x23, 0x5c, 0xbb,
  0xe4, 0x05, 0x0e, 0x3d, 0xb5, 0x3d, 0x9c, 0xbd, 0xf0, 0xe4, 0xc6, 0xbd,
  0x0a, 0xe4, 0x13, 0xbd, 0x60, 0xae, 0x21, 0x3c, 0x58, 0x77, 0x4b, 0x3e,
  0xe5, 0x38, 0xf3, 0xbd, 0x92, 0x9c, 0xed, 0xbc, 0x03, 0xe7, 0xee, 0xbd,
  0x9c, 0xde, 0x9a, 0xbe, 0x8a, 0xd9, 0x9b, 0xbe, 0x8e, 0x64, 0x70, 0xbd,
  0x0c, 0x1b, 0xa8, 0xbd, 0x11, 0xa9, 0x10, 0x3e, 0x0c, 0x85, 0xfa, 0xbb,
  0x85, 0x55, 0xe0, 0xbd, 0x0d, 0xdf, 0x2f, 0xbd, 0x77, 0xe5, 0xf0, 0xbd,
  0x5f, 0xfd, 0x05, 0x3e, 0x29, 0xcf, 0x08, 0x3e, 0x98, 0xd3, 0x0d, 0xbd,
  0x50, 0x86, 0xa5, 0x3e, 0x02, 0xc7, 0x3a, 0xbe, 0xa9, 0x42, 0x80, 0xbe,
  0xee, 0x77, 0x37, 0xbe, 0x77, 0x91, 0x01, 0x3e, 0xf8, 0x75, 0x44, 0xbe,
  0xef, 0xec, 0xe4, 0x3c, 0xce, 0x01, 0x52, 0x3e, 0xd2, 0x45, 0x9e, 0x3e,
  0x50, 0xcb, 0x97, 0xbb, 0x11, 0x45, 0x6a, 0x3d, 0x3d, 0x21, 0xb4, 0x3c,
  0x82, 0x37, 0x4f, 0x3d, 0x6a, 0x96, 0x93, 0xbb, 0xf9, 0xc1, 0x1d, 0x3e,
  0x4c, 0xb4, 0x83, 0x3e, 0x01, 0x51, 0x5e, 0x3e, 0xde, 0x3a, 0xcf, 0xb9,
  0x85, 0xb7, 0x75, 0xbd, 0x8b, 0x18, 0xcc, 0xbc, 0x7f, 0x59, 0xab, 0xbc,
  0x5a, 0xb5, 0xa5, 0xbc, 0x69, 0x8a, 0x92, 0xbd, 0xe1, 0xad, 0xfb, 0xbd,
  0x63, 0xbb, 0x26, 0xbe, 0xba, 0xbb, 0xc6, 0x3d, 0x3f, 0x61, 0x1b, 0xbc,
  0xd8, 0x33, 0x1c, 0x3d, 0xbc, 0x57, 0x70, 0xbe, 0x4c, 0xc9, 0xe5, 0xbb,
  0xce, 0xf9, 0x0b, 0x3e, 0x4b, 0x05, 0xb7, 0xbc, 0x8e, 0x23, 0x98, 0x3c,
  0x35, 0x46, 0x53, 0xbd, 0x74, 0x3d, 0xc6, 0x3c, 0xf9, 0x49, 0x0e, 0xbe,
  0x35, 0x3e, 0xf6, 0xbd, 0x8a, 0xab, 0x0b, 0x3d, 0xbe, 0x58, 0x48, 0xbe,
  0xe1, 0x0c, 0x03, 0xbe, 0xf9, 0x15, 0x6e, 0x3c, 0x88, 0xdf, 0x2c, 0xbd,
  0x01, 0x51, 0x13, 0xbd, 0xe6, 0x22, 0x8d, 0xbd, 0x62, 0x57, 0x88, 0xbd,
  0xe8, 0x43, 0xf7, 0xbd, 0x50, 0x10, 0x91, 0xbe, 0xca, 0x05, 0x93, 0xbd,
  0x38, 0x93, 0x97, 0x3c, 0x7f, 0xfe, 0xfc, 0x3a, 0xc8, 0xaa, 0xc9, 0x3d,
  0x0f, 0xd2, 0x78, 0xbe, 0x5e, 0xea, 0x08, 0xbd, 0x64, 0x45, 0x83, 0x3b,
  0xce, 0x34, 0xd5, 0xbe, 0xdf, 0x60, 0x12, 0x3d, 0xb1, 0x96, 0x26, 0xbd,
  0x75, 0x12, 0x12, 0xbe, 0x0c, 0x0b, 0xb8, 0xbd, 0x4d, 0xb6, 0x6b, 0x3d,
  0x73, 0x99, 0x50, 0xbd, 0x04, 0x85, 0xb2, 0x3c, 0x3a, 0x5e, 0x0d, 0xbe,
  0x03, 0x38, 0x9f, 0xbd, 0xe6, 0xc2, 0x55, 0x3b, 0xbe, 0x98, 0x02, 0xbe,
  0x6a, 0xf2, 0x95, 0x3c, 0x7b, 0xbe, 0xcd, 0xbd, 0x43, 0xef, 0xe2, 0xbd,
  0x64, 0xac, 0x0f, 0x3d, 0xd0, 0x3d, 0x32, 0xbe, 0x90, 0x6e, 0x2e, 0xbe,
  0x77, 0x5f, 0x1b, 0xbe, 0x00, 0xcb, 0x23, 0xbe, 0x9f, 0x9a, 0xe6, 0xbd,
  0x86, 0xd2, 0xd9, 0x3d, 0x80, 0x1c, 0x1c, 0xbe, 0x77, 0xca, 0x94, 0x3d,
  0x86, 0x3b, 0x96, 0xbd, 0x65, 0xc2, 0x38, 0x3e, 0x6b, 0x9c, 0xf1, 0xbd,
  0x9a, 0x9a, 0xf2, 0x3d, 0x15, 0xd3, 0xf7, 0xbc, 0x48, 0x5c, 0x8a, 0xbd,
  0x12, 0x45, 0x2c, 0x3d, 0xba, 0xa2, 0x82, 0xbe, 0x6a, 0x6f, 0x33, 0xbe,
  0x3f, 0x40, 0x05, 0xbe, 0xdf, 0x68, 0x2a, 0x3e, 0x6a, 0xbd, 0x15, 0xbe,
  0x51, 0x6e, 0x7d, 0xbe, 0x70, 0x4b, 0x9f, 0xbb, 0xef, 0xfb, 0x9b, 0xbe,
  0xa4, 0xdb, 0x47, 0xbe, 0x90, 0x44, 0x19, 0x3d, 0x75, 0x9c, 0xae, 0xbd,
  0x55, 0xbe, 0x0d, 0x3e, 0x9a, 0xef, 0x5a, 0x3d, 0x62, 0xb0, 0x34, 0xbe,
  0xe5, 0x68, 0x44, 0xbe, 0x22, 0x30, 0x74, 0x3d, 0xa1, 0x68, 0x2a, 0xbe,
  0xcc, 0xcc, 0x33, 0xbe, 0xe4, 0x05, 0x52, 0xbe, 0x10, 0xa4, 0x97, 0x3d,
  0x32, 0xfc, 0x24, 0x3d, 0xd0, 0xa1, 0x53, 0xbd, 0x40, 0x93, 0x91, 0xbd,
  0x5c, 0x73, 0x9c, 0xbd, 0x40, 0x7e, 0x25, 0xbd, 0xa9, 0x06, 0xb0, 0xbd,
  0x41, 0x2c, 0x8d, 0x3d, 0x75, 0xcd, 0x0e, 0xbe, 0x8f, 0x8b, 0x9d, 0x3d,
  0x93, 0x8d, 0xac, 0xbd, 0x0e, 0x40, 0x3d, 0x3c, 0x1c, 0x46, 0xa3, 0xbd,
  0x41, 0xbe, 0x8d, 0xbe, 0xd8, 0x95, 0x60, 0xbe, 0x33, 0xcf, 0x67, 0xbe,
  0x5c, 0xe9, 0x58, 0xbe, 0x43, 0x77, 0x1e, 0xbe, 0x16, 0x1a, 0xa9, 0x3d,
  0xba, 0x70, 0xfb, 0x3d, 0x93, 0xc6, 0x44, 0xbe, 0xfc, 0xad, 0xf8, 0xbd,
  0x22, 0x9b, 0x74, 0xbe, 0x94, 0x84, 0xa1, 0x3d, 0x2d, 0x2e, 0x27, 0x3d,
  0xa5, 0xe3, 0xc4, 0xbd, 0xb4, 0x8a, 0x02, 0xbd, 0xd2, 0x9e, 0xad, 0xbd,
  0x12, 0x93, 0x8f, 0x3d, 0x50, 0xe1, 0x84, 0xbe, 0x66, 0x24, 0xf4, 0xbd,
  0x65, 0xcd, 0xce, 0x3d, 0xd0, 0xcf, 0x16, 0x3e, 0x41, 0x2f, 0x16, 0x3e,
  0x62, 0x67, 0x8b, 0x3d, 0xde, 0x6a, 0x28, 0x3e, 0x90, 0x69, 0x05, 0x3e,
  0xb0, 0x0d, 0xb8, 0x3c, 0x97, 0x2f, 0x30, 0xbe, 0x31, 0xd9, 0x50, 0xbd,
  0x63, 0x31, 0xab, 0xbd, 0x0a, 0x77, 0xc8, 0xbd, 0xab, 0x58, 0x1e, 0x3e,
  0xc9, 0xc3, 0x87, 0xbe, 0x29, 0x2e, 0xf3, 0x3d, 0xd1, 0xc1, 0x3e, 0xbd,
  0xa4, 0xe2, 0xfd, 0xbd, 0xf3, 0x7c, 0xfc, 0x3c, 0xe0, 0x2d, 0xc8, 0xbd,
  0xa1, 0x63, 0x26, 0x3c, 0x0c, 0xb2, 0x67, 0xbe, 0xba, 0x14, 0xb5, 0x3d,
  0xa8, 0xc6, 0x77, 0x3c, 0x11, 0xf5, 0x3d, 0xbe, 0x62, 0xf2, 0x89, 0xbd,
  0xbb, 0xad, 0x3f, 0x3c, 0xe1, 0x21, 0xc5, 0x3d, 0xf6, 0xf2, 0x72, 0xbe,
  0xc6, 0x94, 0x00, 0x3d, 0x6f, 0x66, 0xf4, 0xbd, 0xb6, 0x17, 0x10, 0xbe,
  0x65, 0x3f, 0x6b, 0xbe, 0xdf, 0xc2, 0xf6, 0xbd, 0x34, 0x26, 0x7e, 0xbe,
  0x74, 0xff, 0x27, 0x3d, 0xe1, 0xb3, 0x59, 0xbe, 0x66, 0x96, 0x1d, 0xbd,
  0xda, 0x07, 0x09, 0xbe, 0x90, 0x08, 0x89, 0xbe, 0x4f, 0x3d, 0xcc, 0x3d,
  0x59, 0x74, 0x0c, 0xbe, 0xe5, 0xdd, 0x64, 0x3d, 0x5c, 0x45, 0x82, 0x3d,
  0xbb, 0x79, 0x02, 0x3e, 0x10, 0x12, 0xdb, 0x3d, 0x33, 0x01, 0x9f, 0xbb,
  0xdb, 0x39, 0x48, 0x3d, 0x12, 0xb2, 0x4e, 0xbd, 0x77, 0xdb, 0x33, 0xbe,
  0x0d, 0xdd, 0x05, 0xbe, 0xdc, 0xc9, 0x3f, 0xbe, 0x22, 0xe9, 0xce, 0x3d,
  0x56, 0x4b, 0x79, 0xbe, 0x76, 0xef, 0x17, 0xbe, 0x21, 0x32, 0x89, 0x3d,
  0xaa, 0xaf, 0x38, 0x3d, 0x1d, 0xe0, 0x0e, 0xbe, 0xbf, 0xa1, 0x12, 0xbe,
  0xa4, 0xbc, 0xa8, 0xbd, 0x5d, 0x58, 0x85, 0xbc, 0xe3, 0xb6, 0x88, 0xbd,
  0x38, 0xb4, 0xef, 0xbd, 0xf8, 0x66, 0xdd, 0x3d, 0x07, 0x08, 0x49, 0xbe,
  0xb2, 0x09, 0x41, 0x3d, 0xd9, 0xde, 0xba, 0x3d, 0xe0, 0x56, 0x0d, 0xbe,
  0xcd, 0xd0, 0xd6, 0xbd, 0x14, 0x9c, 0x6a, 0xbe, 0x17, 0xf5, 0xa3, 0xbd,
  0x32, 0xf5, 0x89, 0xbd, 0x75, 0x6b, 0x43, 0xbe, 0x7b, 0xb0, 0x13, 0xbe,
  0x4f, 0xe4, 0x19, 0xbe, 0x44, 0x3a, 0x55, 0xbd, 0x3f, 0x72, 0xff, 0xbc,
  0x92, 0xf0, 0x5c, 0xbe, 0x41, 0x66, 0xbd, 0xbd, 0x7f, 0x3c, 0x82, 0x3d,
  0x88, 0xf1, 0xb5, 0x3d, 0x9d, 0xc2, 0xc3, 0xbe, 0xc5, 0xa7, 0x04, 0xbe,
  0x5c, 0x43, 0x7e, 0x3d, 0x11, 0x9a, 0x4c, 0xbe, 0x0c, 0x7d, 0x61, 0xbe,
  0xfe, 0x92, 0x3b, 0x3e, 0xa9, 0x0b, 0x3b, 0xbe, 0xec, 0x3a, 0xaa, 0xbe,
  0xcc, 0xf1, 0xb7, 0xbe, 0x78, 0xc6, 0xc5, 0x3e, 0xf9, 0xa0, 0x04, 0x3d,
  0xd6, 0x2a, 0x9a, 0xbe, 0x61, 0x47, 0x6e, 0xbe, 0x3a, 0xe9, 0x62, 0x3d,
  0xe8, 0xbf, 0xdd, 0x3d, 0xc8, 0xa7, 0x00, 0xbd, 0x9a, 0xd1, 0x1d, 0xbe,
  0xab, 0xe9, 0xd9, 0xbe, 0x41, 0x83, 0xae, 0xbd, 0x2f, 0x2b, 0xe1, 0xbe,
  0x8f, 0x48, 0x78, 0x3e, 0x19, 0x58, 0xb6, 0xbd, 0x7d, 0x26, 0x7d, 0xbe,
  0x8e, 0xec, 0xd2, 0xbe, 0x66, 0x8b, 0xa0, 0xbb, 0x21, 0x3c, 0x98, 0xbe,
  0xf5, 0xa8, 0xfc, 0x3e, 0xaa, 0x5a, 0x6c, 0x3e, 0xc8, 0x54, 0xb6, 0xbe,
  0x1b, 0x26, 0xf6, 0x3d, 0xaf, 0xbe, 0xb8, 0xbd, 0xb0, 0xad, 0x97, 0x3d,
  0x5a, 0x26, 0x2a, 0x3e, 0x65, 0x5d, 0x76, 0xbc, 0x8e, 0x8f, 0x9a, 0xbe,
  0x04, 0x1e, 0x75, 0xbe, 0x0e, 0x6a, 0x13, 0x3e, 0x3c, 0x61, 0x17, 0x3e,
  0xe7, 0xff, 0x4f, 0xbe, 0x83, 0x2b, 0x05, 0xbf, 0x63, 0x82, 0x60, 0x3c,
  0x01, 0xb9, 0x44, 0x3c, 0xd5, 0xa8, 0x21, 0x3e, 0x39, 0x0c, 0x89, 0x3d,
  0x91, 0xbf, 0x86, 0xbd, 0xa5, 0x5e, 0x19, 0x3e, 0xff, 0x06, 0x84, 0x3d,
  0x36, 0xab, 0x2b, 0x3d, 0xf5, 0xf0, 0xf5, 0x3d, 0x82, 0x8c, 0x4e, 0xbe,
  0x7f, 0x53, 0x2e, 0xbf, 0xe6, 0x48, 0x24, 0xbe, 0x6b, 0x45, 0x99, 0x3c,
  0xc4, 0xea, 0xdd, 0x3c, 0x47, 0x9d, 0x8b, 0xbd, 0xee, 0x13, 0x8d, 0xbe,
  0x5c, 0xb2, 0xc8, 0xbd, 0xb4, 0xb3, 0x3b, 0xbe, 0xad, 0x41, 0x56, 0x3e,
  0xde, 0xd7, 0x5b, 0xbd, 0x0a, 0x73, 0xd3, 0xbd, 0x6c, 0x07, 0x8e, 0x3d,
  0x9e, 0x84, 0x07, 0x3d, 0x36, 0x4b, 0x13, 0xbc, 0x1e, 0x2e, 0x5c, 0x3d,
  0x5c, 0x2a, 0x3c, 0xbc, 0xa5, 0x2f, 0x1e, 0xbf, 0x19, 0xc1, 0xd4, 0xbd,
  0xae, 0xef, 0xd7, 0x3d, 0x9a, 0xd4, 0x1e, 0x3e, 0x9b, 0x82, 0x18, 0xbd,
  0x73, 0x50, 0x84, 0xbe, 0x71, 0x4d, 0x40, 0xbd, 0x05, 0xca, 0xa0, 0xbd,
  0x33, 0x62, 0xb4, 0x3e, 0xe2, 0x9c, 0x16, 0x3e, 0xe4, 0x1f, 0xb1, 0xbe,
  0xa7, 0xb9, 0xb6, 0xbb, 0xdf, 0x1a, 0x9e, 0x3c, 0xf9, 0x01, 0xf5, 0xbc,
  0xd1, 0xe3, 0xd0, 0x3d, 0x01, 0xef, 0x60, 0x3d, 0x17, 0x42, 0x22, 0xbf,
  0xef, 0x6e, 0x73, 0xbb, 0x13, 0x6e, 0xa3, 0x3d, 0xc3, 0xa8, 0x44, 0x3d,
  0xd4, 0x4b, 0xdf, 0xbe, 0x4d, 0x87, 0xf5, 0xbe, 0x9e, 0x02, 0x9f, 0xbe,
  0x84, 0x98, 0x43, 0xbf, 0x5f, 0x1c, 0x38, 0x3e, 0x7f, 0xe5, 0xa1, 0xbc,
  0x58, 0xc9, 0x63, 0xbe, 0xbc, 0x4c, 0xed, 0x3c, 0xe9, 0x3c, 0xfa, 0xbd,
  0xf9, 0xbd, 0x67, 0x3d, 0x4c, 0x01, 0x65, 0x3c, 0x8e, 0xda, 0x14, 0xbe,
  0x69, 0x97, 0x60, 0xbe, 0xe7, 0x4e, 0x8d, 0xbe, 0xbd, 0x5f, 0x9d, 0xbc,
  0x98, 0xb2, 0x0c, 0x3c, 0x2f, 0x1a, 0x43, 0xbd, 0x5b, 0xb0, 0x59, 0xbd,
  0x83, 0x19, 0x09, 0x3e, 0x7e, 0x00, 0x0d, 0xbe, 0x72, 0xdb, 0x72, 0x3d,
  0xb8, 0x65, 0xf9, 0x3c, 0xed, 0x2c, 0x5f, 0xbe, 0x58, 0x8f, 0xb5, 0x3c,
  0x93, 0x21, 0x11, 0x3e, 0xb5, 0x88, 0x33, 0xbc, 0x79, 0x37, 0x59, 0xbe,
  0x50, 0x33, 0x24, 0x3d, 0xec, 0x34, 0x8e, 0x3c, 0xce, 0x3a, 0xc1, 0xbd,
  0xa8, 0x75, 0x4c, 0x3e, 0xd1, 0x01, 0x1b, 0xbe, 0xdd, 0x26, 0x0d, 0xbd,
  0x8a, 0xe1, 0x18, 0x3c, 0xcb, 0x21, 0x08, 0xbe, 0xce, 0x5d, 0x2a, 0xbe,
  0x88, 0x72, 0xa8, 0xbe, 0x30, 0x8a, 0xa0, 0x3e, 0xd5, 0xae, 0x98, 0x3e,
  0x8d, 0xc6, 0xe8, 0xbd, 0xd7, 0x96, 0x68, 0xbe, 0x4e, 0x55, 0x68, 0x3e,
  0x2b, 0xc3, 0xc7, 0xbe, 0xeb, 0x79, 0x17, 0xbd, 0x12, 0x60, 0xa1, 0xbe,
  0x2b, 0x03, 0x54, 0x3e, 0x9f, 0xb8, 0x46, 0xbe, 0x26, 0xc5, 0x44, 0x3d,
  0x94, 0x99, 0x23, 0x3e, 0x5d, 0x21, 0xdb, 0xbc, 0x1f, 0x0c, 0xc7, 0x3d,
  0xa3, 0x0d, 0x83, 0xbd, 0xc0, 0x17, 0x87, 0xbe, 0x6e, 0xd4, 0x45, 0xbe,
  0x08, 0x52, 0x03, 0xbd, 0x7e, 0xbc, 0x25, 0xbe, 0xa9, 0x3d, 0xc8, 0x3c,
  0x4e, 0x02, 0x86, 0xbd, 0x28, 0x48, 0x7c, 0xbe, 0x8f, 0xd4, 0x2e, 0x3e,
  0x03, 0x04, 0x8f, 0xbe, 0xda, 0x41, 0xee, 0xbc, 0x49, 0xe0, 0x77, 0xbe,
  0xea, 0x92, 0x16, 0x3b, 0x68, 0x23, 0xef, 0x3e, 0xa6, 0x57, 0x1d, 0xbc,
  0x95, 0xa7, 0x2b, 0x3f, 0x35, 0x91, 0x89, 0x3e, 0x16, 0xa3, 0xf0, 0x3d,
  0x2b, 0xda, 0x00, 0xbc, 0x9e, 0x19, 0x7c, 0x3d, 0xf9, 0x83, 0x50, 0xbd,
  0x39, 0x6b, 0xf8, 0xbc, 0xdc, 0xc2, 0xa6, 0xbd, 0xd9, 0xf4, 0x1e, 0xbe,
  0xad, 0x92, 0x95, 0x3c, 0x86, 0x10, 0xbd, 0xbd, 0x63, 0x02, 0xf9, 0x3e,
  0x3b, 0x4a, 0xd6, 0x3d, 0xf1, 0x42, 0xd3, 0xbc, 0xcc, 0xcd, 0x4f, 0x3e,
  0x49, 0x5b, 0x02, 0xbc, 0xbc, 0xfa, 0x25, 0x3e, 0x29, 0x8f, 0xc0, 0x3e,
  0x7c, 0xd7, 0xc6, 0xbd, 0x7d, 0x7b, 0x28, 0xbd, 0x16, 0x7a, 0x47, 0x3e,
  0xe9, 0x94, 0x8d, 0x3c, 0x0d, 0xa8, 0x07, 0x3e, 0x3f, 0x08, 0x1b, 0xbd,
  0xb2, 0x2c, 0x18, 0xbf, 0xb4, 0x12, 0x62, 0x3e, 0xcf, 0x42, 0x0d, 0xbf,
  0x4d, 0xd5, 0xbb, 0x3e, 0xa8, 0xba, 0x6e, 0x3e, 0x85, 0x2b, 0x0c, 0xbd,
  0x54, 0x63, 0x9b, 0x3c, 0x9f, 0xcc, 0xaa, 0xbc, 0xb4, 0xe9, 0x3b, 0x3e,
  0xe4, 0x0d, 0x4a, 0x3f, 0x52, 0x13, 0x38, 0xbe, 0xe6, 0xa4, 0x2b, 0x3e,
  0x23, 0x7e, 0xc8, 0x3e, 0xcf, 0x56, 0x1a, 0x3d, 0x9d, 0x20, 0x11, 0x3f,
  0x34, 0xb1, 0x1c, 0x3e, 0x58, 0xad, 0x07, 0xbf, 0x31, 0x75, 0x11, 0xbe,
  0x40, 0xae, 0x21, 0xbf, 0x44, 0xe4, 0x91, 0x3d, 0x47, 0x89, 0xe4, 0xbd,
  0xfe, 0x14, 0x17, 0xbe, 0xd4, 0xc2, 0x8d, 0xbc, 0x57, 0xc3, 0xd8, 0x3d,
  0x54, 0xc1, 0x07, 0x3e, 0xe8, 0x24, 0x36, 0x3c, 0x77, 0x53, 0xb0, 0xbe,
  0xb0, 0x47, 0x35, 0x3e, 0x7e, 0x4c, 0x34, 0x3f, 0xf4, 0x38, 0xe8, 0xbc,
  0xd6, 0xa1, 0x97, 0x3d, 0x66, 0x0d, 0x61, 0x3e, 0xed, 0x39, 0xce, 0xbe,
  0x42, 0x47, 0x08, 0x3e, 0x69, 0x11, 0xf9, 0xbe, 0x9c, 0xd3, 0x8d, 0x3d,
  0xf4, 0x11, 0x9a, 0xbd, 0x62, 0xe7, 0x1a, 0xbe, 0xe5, 0xe2, 0x6e, 0xbc,
  0x5d, 0x4c, 0xa9, 0xbd, 0x8f, 0xc6, 0x53, 0x3d, 0x94, 0x1a, 0x8f, 0xbd,
  0x54, 0x7a, 0x38, 0xbe, 0x4e, 0xdf, 0xcd, 0xbc, 0xf4, 0x3a, 0x0d, 0xbe,
  0x6b, 0xb2, 0x02, 0xbd, 0xd9, 0x03, 0x21, 0x3e, 0xb5, 0xd9, 0x27, 0x3d,
  0xf2, 0x71, 0xc8, 0xbd, 0x96, 0x90, 0x68, 0xbd, 0x3a, 0x3f, 0x0d, 0xbd,
  0x59, 0x9c, 0x1e, 0xbe, 0x06, 0x96, 0x94, 0xbe, 0xf5, 0x06, 0x08, 0xbe,
  0x15, 0xa8, 0x45, 0xbd, 0xc8, 0x44, 0xfc, 0x3c, 0xe2, 0x05, 0x91, 0xbd,
  0x2e, 0x80, 0x1b, 0x3e, 0xe5, 0xbe, 0x1c, 0xbe, 0x93, 0x5d, 0x9a, 0xbd,
  0x81, 0xae, 0x9d, 0xbd, 0x21, 0xc6, 0xbb, 0xbe, 0xbc, 0x70, 0xff, 0x3d,
  0x88, 0x4f, 0x82, 0xbe, 0x28, 0x12, 0x06, 0xbd, 0x32, 0x86, 0x86, 0xbe,
  0x67, 0x7f, 0x7c, 0x3d, 0x78, 0x48, 0xbf, 0xbc, 0xfe, 0x43, 0xed, 0xbd,
  0x52, 0x72, 0xa0, 0x3b, 0x2a, 0xef, 0xcd, 0x3d, 0x3e, 0xcd, 0xe4, 0x3d,
  0xde, 0xda, 0x3c, 0x3d, 0x7c, 0x51, 0x52, 0x3e, 0x08, 0x9a, 0x79, 0xbd,
  0x1b, 0x2d, 0x33, 0x3d, 0xaa, 0xfe, 0xc1, 0xbd, 0xad, 0x39, 0x9a, 0xbd,
  0x85, 0x40, 0xaa, 0xbe, 0x89, 0x54, 0xd7, 0xbd, 0x45, 0x4b, 0xd1, 0xbc,
  0x59, 0x88, 0x0d, 0xbe, 0x9c, 0x03, 0xc9, 0xbc, 0x8c, 0xd2, 0x04, 0x3e,
  0x2f, 0x78, 0x51, 0xbe, 0x67, 0xa6, 0x8f, 0x3e, 0x20, 0x1d, 0x4d, 0x3e,
  0x90, 0xfa, 0x56, 0x3e, 0x81, 0x8d, 0x8e, 0xbe, 0x9f, 0xfa, 0xed, 0xbd,
  0xc6, 0xf1, 0x0a, 0xbe, 0x3a, 0x0a, 0x8e, 0xbc, 0x63, 0xb7, 0x03, 0x3e,
  0xbe, 0x17, 0x76, 0xbd, 0x5b, 0xfb, 0xad, 0xbb, 0x5e, 0x9c, 0x9c, 0xbe,
  0xe5, 0xfd, 0x9c, 0x3e, 0xe9, 0xb9, 0x54, 0xbd, 0x7d, 0x9d, 0x30, 0x3e,
  0x70, 0xf8, 0x1f, 0x3e, 0xbe, 0x4d, 0x61, 0xbe, 0x52, 0x36, 0xe6, 0x3d,
  0x83, 0x89, 0x8e, 0x3d, 0x98, 0xf3, 0xf7, 0x3c, 0xc1, 0xb8, 0x4c, 0x3d,
  0x07, 0xee, 0x3b, 0x3e, 0xaf, 0x65, 0xe0, 0xbd, 0x85, 0xff, 0x36, 0xbd,
  0xea, 0x46, 0x6a, 0x3e, 0x8b, 0xa1, 0xcc, 0xbd, 0x30, 0x45, 0xb3, 0x3d,
  0xbf, 0xc0, 0xb9, 0xbc, 0xad, 0x22, 0xe4, 0x3d, 0xbc, 0x4f, 0xeb, 0x3d,
  0x60, 0x0e, 0x46, 0x3e, 0x17, 0xf1, 0xb9, 0x3d, 0xc6, 0x6d, 0x4f, 0xbe,
  0x50, 0x10, 0x80, 0x3d, 0x79, 0x4d, 0x90, 0x3c, 0xf1, 0xf5, 0xf1, 0x3d,
  0xb0, 0x92, 0xd8, 0xbe, 0x8d, 0x1f, 0x8f, 0xbe, 0xd2, 0x5c, 0x18, 0xbe,
  0x99, 0xe1, 0x98, 0xbe, 0x4f, 0x30, 0xe1, 0xbd, 0xd1, 0x35, 0x0c, 0xbe,
  0x90, 0xae, 0x4b, 0xbe, 0xef, 0x9d, 0x3c, 0xbe, 0x20, 0x42, 0x64, 0xbd,
  0x65, 0x16, 0x8f, 0xbd, 0x3d, 0xe8, 0x8a, 0x3e, 0xc2, 0x40, 0x1b, 0xbd,
  0x9b, 0xa6, 0x9f, 0xbe, 0x32, 0xa1, 0xef, 0xbd, 0x5e, 0x45, 0x12, 0xbe,
  0x56, 0x46, 0x63, 0xbd, 0xc6, 0x03, 0xab, 0xbe, 0xd5, 0xa1, 0x8f, 0xbe,
  0x4d, 0xe8, 0x0c, 0xbe, 0x55, 0xd9, 0x9b, 0x3d, 0xbd, 0x71, 0x0f, 0xbe,
  0xba, 0x6e, 0x9b, 0xbd, 0x5d, 0xc0, 0xcf, 0xbd, 0x46, 0x4a, 0x83, 0xbe,
  0xa3, 0xb1, 0xe4, 0x3d, 0x2b, 0xc8, 0x6d, 0xbd, 0xae, 0x01, 0x39, 0x3e,
  0x01, 0xf5, 0x19, 0xbe, 0xf4, 0x0a, 0x4f, 0xbe, 0x1a, 0xae, 0x34, 0xbe,
  0x5a, 0x47, 0x5d, 0xbe, 0x06, 0x9c, 0x1d, 0xbe, 0xc5, 0x40, 0x64, 0xbd,
  0x39, 0xf4, 0xfd, 0x3d, 0x9b, 0x01, 0xda, 0xbd, 0x7a, 0xf3, 0x1d, 0xbe,
  0xcc, 0x6a, 0x6c, 0xbe, 0xf5, 0x67, 0xf8, 0xbd, 0xb6, 0xb2, 0x76, 0xbe,
  0x8a, 0x1c, 0xe3, 0xbe, 0x2c, 0x7e, 0x03, 0x3e, 0x8a, 0xf2, 0x77, 0xbe,
  0xb8, 0xba, 0x46, 0x3e, 0x38, 0x44, 0x38, 0xbe, 0x57, 0x2a, 0xec, 0xba,
  0xc0, 0xa9, 0x22, 0xbe, 0xbf, 0x7d, 0x97, 0xbd, 0xf6, 0xdd, 0x04, 0xbd,
  0x91, 0xb7, 0x8d, 0x3d, 0x37, 0xa0, 0x7b, 0xbc, 0xa5, 0x1f, 0xc8, 0xbd,
  0x96, 0x41, 0xb5, 0x3e, 0x56, 0x50, 0xea, 0x3d, 0x6e, 0x8a, 0x92, 0xbe,
  0x44, 0xe4, 0x75, 0xbe, 0x2f, 0x77, 0xe1, 0x3d, 0xfa, 0x1f, 0x8f, 0xbe,
  0x56, 0x78, 0x1c, 0xbc, 0x73, 0xce, 0xa8, 0xbd, 0x0c, 0x15, 0xfb, 0xbd,
  0x6f, 0x68, 0xd5, 0xbd, 0x07, 0x8c, 0x87, 0x3c, 0x51, 0x6f, 0x15, 0x3e,
  0x64, 0x9b, 0xd5, 0xbd, 0x5c, 0x49, 0xd8, 0xbd, 0x73, 0xf7, 0xdf, 0xbc,
  0x92, 0xeb, 0x56, 0xbe, 0x20, 0xbe, 0xf2, 0xbd, 0xb1, 0x70, 0xcb, 0x3e,
  0xce, 0x91, 0x92, 0xbe, 0xcc, 0xa1, 0xcb, 0xbc, 0x5b, 0x23, 0x33, 0xbd,
  0x36, 0x50, 0x2f, 0xbd, 0x4d, 0x51, 0xc8, 0xbb, 0x08, 0xdf, 0xeb, 0xbd,
  0x0c, 0xe4, 0xe6, 0x3d, 0x73, 0x41, 0x9d, 0x3d, 0xd5, 0xbb, 0xa7, 0xbc,
  0x46, 0xdf, 0xe2, 0x3e, 0xa0, 0xf9, 0x23, 0x3e, 0xe6, 0x20, 0x81, 0x3e,
  0xad, 0x96, 0x8b, 0x3e, 0x71, 0x19, 0x74, 0x3e, 0x9b, 0x92, 0x0a, 0x3d,
  0x41, 0x23, 0x12, 0x3d, 0xb5, 0xb4, 0xb2, 0x3b, 0x17, 0xf6, 0x33, 0xbe,
  0x40, 0x42, 0x2b, 0xbe, 0x0a, 0xf2, 0x49, 0xbe, 0x7d, 0xbb, 0x0c, 0x3d,
  0xc4, 0xda, 0xf8, 0xbd, 0x6f, 0x63, 0x48, 0xbd, 0x39, 0x32, 0xa5, 0x3e,
  0x8e, 0x01, 0x4b, 0xbe, 0x2f, 0x0d, 0xb1, 0x3d, 0x6f, 0x0f, 0xa5, 0x3e,
  0x90, 0x6c, 0x9f, 0x3e, 0x4c, 0x4e, 0xdc, 0x3e, 0x0d, 0xcd, 0x05, 0x3d,
  0xd1, 0x97, 0x63, 0x3e, 0x7c, 0xa4, 0xd0, 0x3d, 0x83, 0xd6, 0x14, 0x3e,
  0x15, 0x72, 0x84, 0x3e, 0x63, 0xb6, 0x8b, 0xbb, 0x6b, 0x48, 0x9d, 0xbe,
  0xb6, 0x4c, 0x3f, 0xbe, 0x69, 0xa6, 0xd1, 0xbe, 0xb2, 0x60, 0x22, 0x3e,
  0x5d, 0x96, 0xd9, 0x3d, 0x83, 0xf8, 0x28, 0x3e, 0x25, 0x0a, 0x41, 0xbc,
  0xea, 0xec, 0x38, 0x3e, 0x64, 0xd9, 0x55, 0x3e, 0x3f, 0x3f, 0x8b, 0x3e,
  0xe5, 0xfb, 0x79, 0xbe, 0x7f, 0xad, 0xda, 0x3e, 0x3f, 0x94, 0xed, 0x3e,
  0xe9, 0x63, 0xd0, 0xbd, 0xc8, 0xe1, 0x64, 0x3e, 0x2f, 0x15, 0xcb, 0xbd,
  0x5b, 0xef, 0x99, 0xbe, 0xdf, 0xd2, 0xdf, 0xbd, 0x7c, 0x9c, 0x97, 0xbe,
  0x0c, 0x43, 0x2a, 0x3e, 0x93, 0x05, 0xa3, 0xbe, 0x27, 0xf3, 0xdb, 0x3d,
  0x67, 0xe7, 0xd4, 0xbd, 0x50, 0x8c, 0xec, 0xbc, 0x03, 0xb7, 0xa5, 0xbd,
  0xef, 0xb0, 0x34, 0x3e, 0x8e, 0xbf, 0x8b, 0xbe, 0x5e, 0x4a, 0x1f, 0xbe,
  0x4c, 0xb9, 0xff, 0x3e, 0xfb, 0xdd, 0x3d, 0xbe, 0xf8, 0x91, 0x21, 0xba,
  0xee, 0x6e, 0x18, 0xbe, 0xf1, 0x57, 0x87, 0xbe, 0x7c, 0x4f, 0xe6, 0x3b,
  0xde, 0xd9, 0x4f, 0xbe, 0x1b, 0x4f, 0x7f, 0x3e, 0x97, 0x86, 0x99, 0x3d,
  0x95, 0xc2, 0xa6, 0x3d, 0xb1, 0x0d, 0xc4, 0x3d, 0xe7, 0x92, 0x05, 0xbe,
  0x59, 0x42, 0x7b, 0x3c, 0xb4, 0xdb, 0x20, 0xbc, 0xb8, 0x1a, 0x80, 0xbe,
  0x6b, 0xc3, 0x08, 0x3e, 0xa7, 0x96, 0x82, 0xbe, 0x5a, 0x6c, 0xb6, 0xbb,
  0xcc, 0xc0, 0x3a, 0x3e, 0x28, 0x86, 0xb9, 0xbd, 0x0a, 0x23, 0x2c, 0xbe,
  0x8f, 0xb7, 0x25, 0xbe, 0x0e, 0x8e, 0x12, 0xbd, 0x15, 0x77, 0xf8, 0xbd,
  0x12, 0xa0, 0x62, 0xbe, 0xd5, 0x8c, 0x60, 0x3e, 0x51, 0x15, 0x8a, 0xbd,
  0x6a, 0xd1, 0x10, 0x3d, 0xad, 0x59, 0x8d, 0xbe, 0xec, 0x33, 0x3b, 0xbe,
  0xbe, 0x49, 0x12, 0xbd, 0x5e, 0x1e, 0x21, 0x3d, 0x71, 0xcd, 0x02, 0xbd,
  0xa6, 0xc3, 0xd2, 0xbd, 0x06, 0x05, 0xca, 0xbd, 0x3f, 0x06, 0x9c, 0xbd,
  0x0f, 0x9c, 0x92, 0x3d, 0x13, 0x97, 0x54, 0xbe, 0xf1, 0x2a, 0x4a, 0x3e,
  0x54, 0x35, 0x89, 0xbd, 0x07, 0x1a, 0x1f, 0xbe, 0x11, 0x43, 0xaa, 0xbb,
  0x54, 0x4f, 0xc4, 0x3d, 0x08, 0xa0, 0x49, 0x3d, 0xd9, 0x90, 0x46, 0xbe,
  0x21, 0xb6, 0x71, 0xbd, 0xcb, 0xe2, 0x71, 0xbd, 0x1b, 0xd1, 0x42, 0x3e,
  0x8f, 0x8b, 0x29, 0xbc, 0xd4, 0xe4, 0x4d, 0xbe, 0x2d, 0x50, 0xfd, 0xbc,
  0x18, 0xab, 0x7b, 0xbe, 0xfe, 0x7c, 0x63, 0x3e, 0x7a, 0xe6, 0x09, 0x3d,
  0x95, 0x99, 0x50, 0x3e, 0x57, 0x70, 0x67, 0x3e, 0x24, 0x69, 0x83, 0xbe,
  0xb3, 0x29, 0xa0, 0x3e, 0x0a, 0xfb, 0xfa, 0x3d, 0x6e, 0x7d, 0x23, 0x3e,
  0x1c, 0x4c, 0x64, 0x3c, 0x4d, 0xc9, 0x82, 0xbc, 0xb1, 0x37, 0xc0, 0x3e,
  0x25, 0x2e, 0x9d, 0xbd, 0x36, 0x30, 0xe3, 0xbb, 0xce, 0x23, 0x38, 0xbe,
  0x95, 0x57, 0x2f, 0xbe, 0xc6, 0x33, 0xb5, 0xbd, 0xf3, 0x47, 0x88, 0x3e,
  0xf6, 0xe3, 0x5b, 0x3e, 0xef, 0x58, 0x4d, 0x3e, 0x38, 0x79, 0x7a, 0xbc,
  0x64, 0x56, 0x48, 0xbe, 0x16, 0x33, 0xc8, 0xbc, 0x8c, 0x90, 0xa8, 0x3d,
  0x79, 0x4d, 0x56, 0x3e, 0x53, 0x32, 0x67, 0xbe, 0x67, 0xfa, 0xa4, 0x3d,
  0x06, 0xf5, 0x04, 0xbd, 0xc3, 0xf9, 0xa8, 0xbc, 0x0a, 0x38, 0xa4, 0x3d,
  0x73, 0x4d, 0x39, 0xbe, 0x37, 0xc7, 0x68, 0x3e, 0x06, 0x9c, 0x81, 0xbe,
  0x08, 0x64, 0xd4, 0x3d, 0x86, 0x90, 0x11, 0x3e, 0xee, 0x6c, 0x8c, 0x3e,
  0xa4, 0x5c, 0x29, 0x3e, 0x35, 0x84, 0xc0, 0xbe, 0xcf, 0x6d, 0x8d, 0x3e,
  0xa3, 0xb6, 0xb9, 0x3c, 0x0f, 0x2a, 0x08, 0x3e, 0x12, 0x3f, 0x78, 0xbe,
  0x00, 0x4a, 0x9d, 0xbe, 0xa7, 0x4f, 0x10, 0xbe, 0x9d, 0x12, 0x85, 0xbc,
  0x6c, 0x4d, 0x62, 0x3d, 0x27, 0xec, 0xd5, 0xbd, 0x0d, 0xd7, 0x50, 0xbe,
  0xbe, 0xf7, 0xc0, 0xbe, 0xaa, 0x06, 0x36, 0x3e, 0x63, 0xc9, 0x34, 0xbe,
  0x42, 0xe7, 0x8a, 0x3e, 0x26, 0xc4, 0xd2, 0x3d, 0x45, 0x88, 0x75, 0xbe,
  0x33, 0xe5, 0x76, 0x3d, 0x59, 0x32, 0x00, 0xbe, 0xf4, 0xc5, 0x18, 0x3d,
  0xcc, 0xcb, 0x38, 0xbe, 0xb4, 0x02, 0x72, 0xbe, 0xac, 0x97, 0xfe, 0x3c,
  0x0c, 0x67, 0x1d, 0xbe, 0x96, 0x0b, 0x44, 0x3d, 0x9a, 0xdc, 0xee, 0x3c,
  0x85, 0xf8, 0x16, 0xbd, 0xcf, 0x8f, 0xff, 0xbd, 0x91, 0x8b, 0xb7, 0x3d,
  0xe8, 0x4d, 0x3a, 0x3d, 0x2b, 0x62, 0x1d, 0x3e, 0xbd, 0x42, 0x2e, 0xbe,
  0x66, 0x2a, 0xda, 0xbd, 0x77, 0xbf, 0xe6, 0xbd, 0xe5, 0xf3, 0xfa, 0xbd,
  0x31, 0xe5, 0x64, 0xbd, 0xca, 0x08, 0x1b, 0xbe, 0xff, 0x3d, 0x90, 0xbe,
  0xad, 0xda, 0x5a, 0x3d, 0xca, 0xc8, 0x70, 0xbe, 0x3d, 0x67, 0x0a, 0xbe,
  0x44, 0x71, 0x5f, 0xbe, 0xd6, 0x63, 0xfb, 0xbe, 0x40, 0xed, 0xfc, 0xbe,
  0x20, 0x1f, 0x3a, 0x3e, 0xea, 0x80, 0x4a, 0xbe, 0xea, 0x6c, 0x71, 0x3e,
  0x63, 0xe5, 0x62, 0xbd, 0x2b, 0xd9, 0x4d, 0xbe, 0x13, 0xb8, 0x06, 0x3f,
  0xf7, 0x3c, 0x0e, 0xbf, 0xcb, 0x28, 0x24, 0xbf, 0x68, 0xaf, 0x69, 0xbe,
  0x86, 0xc8, 0xc1, 0x3e, 0xd0, 0xd6, 0x1b, 0x3e, 0x81, 0xe8, 0x11, 0xbe,
  0x3c, 0xf8, 0x2d, 0xbe, 0x29, 0x94, 0x40, 0x3d, 0x71, 0x18, 0x47, 0x3e,
  0x6d, 0xfd, 0x67, 0x3d, 0x7d, 0x90, 0xad, 0xbe, 0x75, 0xa0, 0x02, 0xbf,
  0xc9, 0xc7, 0xd4, 0xbe, 0xd4, 0xde, 0xef, 0xbe, 0x2f, 0x21, 0x33, 0x3e,
  0xe0, 0x12, 0x18, 0x3e, 0x32, 0x72, 0xd2, 0xbe, 0xab, 0xd9, 0xbd, 0xbe,
  0xbc, 0x73, 0x6c, 0x3d, 0xae, 0x1e, 0x2d, 0x3c, 0x39, 0x82, 0x8e, 0x3e,
  0x48, 0x08, 0x48, 0x3e, 0x4b, 0xe0, 0x04, 0x3d, 0xfb, 0x29, 0xa4, 0x3d,
  0x85, 0x55, 0x9e, 0xbd, 0x01, 0x18, 0xb3, 0x3d, 0x9b, 0x6e, 0x7f, 0xbd,
  0x08, 0x3a, 0x15, 0xbe, 0xdb, 0xe0, 0x3a, 0xbf, 0x7a, 0x57, 0x15, 0x3d,
  0x92, 0xb3, 0xde, 0x3d, 0x01, 0xf2, 0x64, 0x3e, 0x5e, 0x52, 0xa6, 0xbe,
  0x4f, 0x73, 0x93, 0xbe, 0xf0, 0xb3, 0x85, 0xbd, 0x8b, 0xfa, 0x6f, 0x3d,
  0x30, 0xb5, 0xce, 0x3e, 0x34, 0x32, 0x25, 0x3c, 0x0b, 0xcf, 0x38, 0x3e,
  0x4f, 0xba, 0x93, 0x3d, 0x80, 0x06, 0x12, 0xbd, 0x28, 0xc7, 0x0a, 0x3d,
  0x5c, 0x41, 0x5b, 0x3d, 0xe7, 0xc4, 0x64, 0x3d, 0x21, 0xa1, 0x22, 0xbf,
  0xb6, 0x25, 0xa0, 0xbe, 0x3d, 0x21, 0xe1, 0x3d, 0xe7, 0xab, 0xe3, 0x3d,
  0x35, 0xee, 0xb8, 0xbe, 0x5a, 0xe5, 0xba, 0xbe, 0xae, 0x7a, 0x27, 0x3c,
  0x87, 0x80, 0xbd, 0x3d, 0xe4, 0xff, 0x03, 0x3f, 0xe3, 0xbe, 0x73, 0x3e,
  0xa4, 0xcf, 0xe2, 0xbd, 0x05, 0x1b, 0x21, 0x3d, 0x3b, 0xf8, 0x0d, 0xbe,
  0x12, 0x35, 0xef, 0x3b, 0x55, 0x85, 0x87, 0x3e, 0x0a, 0x4f, 0x1d, 0x3e,
  0xae, 0x72, 0x59, 0xbf, 0x0e, 0x56, 0xa3, 0xbd, 0xd8, 0xae, 0x3b, 0x3e,
  0x31, 0x93, 0x9d, 0x3e, 0xd5, 0xbb, 0x98, 0xbe, 0xb8, 0xef, 0x66, 0xbe,
  0x42, 0x7a, 0x89, 0xbd, 0x0e, 0x49, 0x11, 0x3d, 0xb7, 0x29, 0x2e, 0x3e,
  0xf8, 0x2f, 0xae, 0xbd, 0xde, 0x21, 0x3e, 0xbd, 0xef, 0xd4, 0xf0, 0x3c,
  0x6e, 0x53, 0x03, 0xbc, 0xc6, 0xea, 0x22, 0x3d, 0x70, 0x45, 0xd5, 0x3d,
  0xab, 0x38, 0x10, 0x3e, 0xde, 0xbb, 0x42, 0xbf, 0x43, 0x09, 0xce, 0x3c,
  0xb1, 0x95, 0xbd, 0x3d, 0x56, 0x57, 0x5e, 0x3d, 0x81, 0x62, 0x54, 0xbf,
  0xf3, 0xf5, 0x0e, 0xbf, 0xd1, 0x64, 0xab, 0xbe, 0x14, 0xe2, 0x04, 0xbf,
  0xbd, 0x7f, 0x3f, 0x3e, 0xb9, 0xfd, 0x06, 0xbe, 0x65, 0x9f, 0x9c, 0x3d,
  0x3e, 0x7d, 0x83, 0x3d, 0x8c, 0x36, 0x77, 0xbd, 0x11, 0x57, 0x58, 0x3d,
  0xe1, 0x37, 0xb3, 0xbc, 0x9b, 0x72, 0x0a, 0xbe, 0x7e, 0xc9, 0x45, 0xbe,
  0x4e, 0x78, 0x5a, 0xbe, 0xf8, 0xf0, 0x6c, 0xbd, 0xf9, 0xbd, 0x05, 0xbd,
  0x65, 0xf9, 0x3c, 0xbe, 0x5a, 0x02, 0xe4, 0xbd, 0x15, 0x93, 0xa3, 0x3d,
  0x3a, 0xe9, 0x9a, 0xbd, 0x79, 0xb9, 0xf0, 0x3d, 0x0d, 0x49, 0x2f, 0x3d,
  0x16, 0x98, 0x35, 0xbd, 0xfb, 0xeb, 0x05, 0x3c, 0x46, 0x4e, 0x57, 0x3e,
  0x5b, 0x07, 0x16, 0xbc, 0xf3, 0xe4, 0x12, 0xbe, 0xb9, 0x74, 0x0b, 0x3d,
  0x23, 0x7a, 0x9c, 0x3d, 0x84, 0xf3, 0x41, 0xbe, 0xb6, 0x31, 0xb6, 0xbd,
  0xcd, 0x29, 0xf1, 0x3d, 0x29, 0xe5, 0x22, 0xbc, 0x1f, 0x92, 0x1d, 0xbd,
  0xe9, 0xa2, 0x53, 0x3e, 0x60, 0xf5, 0x1c, 0x3d, 0xea, 0x95, 0x69, 0x3e,
  0xa0, 0x5b, 0xb1, 0xbe, 0x7b, 0xad, 0xcf, 0xbe, 0xc3, 0x82, 0x37, 0x3e,
  0x35, 0xc9, 0xca, 0xbe, 0x10, 0xac, 0x7c, 0xbe, 0x12, 0x1d, 0x97, 0x3e,
  0x80, 0x9b, 0xc2, 0x3e, 0xdc, 0xd8, 0x90, 0x3d, 0x29, 0x6d, 0xda, 0xbb,
  0xa4, 0x77, 0x5d, 0x3e, 0x30, 0x2e, 0x6e, 0x3e, 0x1b, 0x36, 0xa8, 0x3c,
  0x5e, 0x8e, 0x90, 0xbd, 0x7c, 0x7c, 0xa8, 0x3e, 0xdd, 0xd4, 0x2d, 0xbd,
  0x31, 0xd0, 0x59, 0x3e, 0xe8, 0x5f, 0xa1, 0x3d, 0xf9, 0x7b, 0xe9, 0x3d,
  0x16, 0xaa, 0x28, 0x3d, 0x6b, 0x8d, 0x3e, 0x3d, 0xa8, 0x5c, 0x1f, 0x3e,
  0x97, 0x5d, 0x06, 0x3e, 0xc5, 0x23, 0x0c, 0x3d, 0xb4, 0xce, 0x94, 0x3e,
  0x5e, 0xd1, 0xda, 0x3d, 0x93, 0x18, 0xc7, 0x3e, 0xfa, 0x5c, 0x69, 0x3e,
  0xef, 0xe3, 0x02, 0xbf, 0xc5, 0x29, 0x97, 0xbe, 0x25, 0x05, 0xb1, 0xbd,
  0x81, 0x46, 0x76, 0x3e, 0x62, 0xbe, 0x38, 0x3e, 0xd3, 0x41, 0x61, 0x3b,
  0x52, 0x4c, 0x8e, 0x3e, 0xd0, 0x2b, 0xe5, 0xbc, 0x5f, 0xa9, 0x87, 0x3e,
  0xaa, 0xbb, 0xf4, 0x3d, 0xd3, 0xc4, 0x60, 0xbb, 0x74, 0x76, 0x00, 0x3e,
  0x1f, 0xc4, 0x27, 0xbe, 0x12, 0xd5, 0x12, 0x3d, 0xf3, 0xef, 0x28, 0xbe,
  0xd9, 0xee, 0x18, 0xbd, 0x90, 0x01, 0x37, 0xbf, 0x64, 0x4f, 0x12, 0xbf,
  0xce, 0x66, 0xbc, 0xbe, 0x4b, 0x7a, 0x6b, 0xbe, 0xf2, 0xc2, 0x7b, 0xbe,
  0x06, 0x8c, 0xdc, 0xbb, 0x7b, 0x7c, 0x1a, 0xbe, 0xb8, 0xa6, 0xc4, 0xbc,
  0x2c, 0x45, 0xab, 0x3e, 0xc6, 0x19, 0xf6, 0xbc, 0xf9, 0xf5, 0x3a, 0xbe,
  0xc6, 0xb0, 0x79, 0xbe, 0x75, 0x0a, 0x4d, 0xbe, 0x6e, 0x46, 0xa9, 0xbd,
  0x53, 0xdd, 0xe2, 0xbd, 0x1d, 0x64, 0x0d, 0x3e, 0xf5, 0x0b, 0x61, 0xbe,
  0xb6, 0xa5, 0xfa, 0xbe, 0xf8, 0x88, 0xef, 0xbd, 0xab, 0x36, 0x1a, 0xbd,
  0xdd, 0x0a, 0x02, 0x3e, 0xa0, 0xd7, 0x47, 0xbc, 0xe9, 0xbf, 0xbb, 0xbc,
  0xaf, 0xa0, 0x92, 0x3a, 0x0a, 0x11, 0xbb, 0x3d, 0x55, 0x86, 0xfa, 0xbd,
  0x06, 0x30, 0x2f, 0xbd, 0x65, 0x36, 0x33, 0xbd, 0xef, 0x64, 0xd2, 0xbd,
  0x14, 0xed, 0x0b, 0xbe, 0xf8, 0x77, 0x50, 0xbe, 0x7d, 0x4d, 0xbb, 0x3e,
  0x57, 0xf6, 0x71, 0xbe, 0x3b, 0xa5, 0x85, 0xbe, 0x51, 0x2a, 0x88, 0xbe,
  0x81, 0x47, 0x2d, 0xbe, 0xfa, 0x73, 0xeb, 0x3c, 0x5a, 0x3c, 0x4a, 0xbc,
  0x37, 0x47, 0xb6, 0x3b, 0xb4, 0xe2, 0xba, 0xbd, 0x8e, 0xaa, 0xed, 0xbd,
  0x03, 0x31, 0x6a, 0x3c, 0x93, 0x80, 0xcc, 0x3d, 0x23, 0x35, 0x70, 0xba,
  0xcd, 0xdc, 0x1f, 0x3d, 0x97, 0xc3, 0x87, 0xbe, 0x14, 0x9c, 0x80, 0xbe,
  0x05, 0x86, 0x9f, 0xbd, 0xf8, 0x68, 0x41, 0xbe, 0xfd, 0xa7, 0x15, 0xbe,
  0x5a, 0xc6, 0xb6, 0xbd, 0x69, 0xdc, 0x31, 0xbc, 0x60, 0x34, 0xd1, 0x3d,
  0xf2, 0xaf, 0x40, 0x3e, 0x20, 0xd2, 0x10, 0xbe, 0x94, 0x64, 0x6e, 0xbd,
  0x32, 0xb7, 0xce, 0xbd, 0x3a, 0x35, 0xe1, 0xbd, 0xa3, 0xd5, 0x15, 0xbe,
  0xb4, 0x85, 0x32, 0xbe, 0x9e, 0xc2, 0x84, 0xba, 0xcf, 0xc3, 0x4e, 0xbe,
  0x88, 0x0f, 0xad, 0x3d, 0x15, 0xff, 0xa8, 0xbe, 0xa0, 0x4e, 0x03, 0x3c,
  0xea, 0x50, 0xcd, 0x3d, 0xe5, 0x7c, 0x69, 0xbe, 0x26, 0x92, 0x42, 0xbd,
  0x59, 0x3c, 0xc7, 0xbe, 0x20, 0x8e, 0x90, 0x3e, 0x54, 0x06, 0x96, 0x3e,
  0x48, 0xf6, 0x01, 0xbe, 0x63, 0x67, 0x08, 0xbe, 0x1c, 0xcb, 0x11, 0x3e,
  0xd2, 0x74, 0x20, 0xbf, 0x62, 0x08, 0x62, 0xbe, 0xe6, 0x28, 0xe0, 0xbe,
  0x03, 0xe6, 0xfc, 0x3d, 0xe2, 0x91, 0xbb, 0xbd, 0x80, 0x75, 0x80, 0xbe,
  0xe3, 0xc3, 0xea, 0x3d, 0x13, 0x73, 0x9f, 0x3b, 0x3c, 0x08, 0xe1, 0x3d,
  0x5b, 0x96, 0x8e, 0x3e, 0x49, 0x23, 0xa6, 0xbe, 0x99, 0x2b, 0xd6, 0xbd,
  0x2c, 0xca, 0x6b, 0x3d, 0x8d, 0x78, 0xf9, 0xbd, 0xfa, 0x0d, 0x98, 0x3e,
  0x62, 0xc6, 0x1f, 0xbd, 0x03, 0x53, 0xce, 0xbe, 0x00, 0xb5, 0x39, 0x3e,
  0xcc, 0xc3, 0x0d, 0xbf, 0x0e, 0x55, 0xf1, 0xbc, 0xd0, 0x0b, 0xbf, 0xbc,
  0xde, 0x66, 0x22, 0xbe, 0x25, 0x1a, 0xbe, 0x3e, 0xbe, 0x23, 0x67, 0x3e,
  0xa8, 0xb6, 0x36, 0x3f, 0x4e, 0xf5, 0x18, 0xbd, 0x3e, 0xef, 0x22, 0x3e,
  0x12, 0xef, 0xbe, 0xbd, 0xbe, 0xe6, 0x39, 0x3e, 0x43, 0x9d, 0x46, 0xbd,
  0x8f, 0xf8, 0x96, 0x3d, 0x6d, 0x3e, 0xc3, 0xbd, 0xee, 0x9c, 0x3c, 0x3c,
  0x7a, 0xd1, 0x9a, 0x3e, 0xec, 0x9b, 0xf9, 0xbd, 0x23, 0x35, 0x24, 0x3e,
  0xcf, 0x7f, 0xaa, 0x3d, 0xff, 0x31, 0x9b, 0x3b, 0xc1, 0x01, 0xac, 0x3e,
  0x20, 0xdf, 0x63, 0x3e, 0xcb, 0x28, 0x91, 0x3d, 0xd1, 0x43, 0x81, 0x3d,
  0xc7, 0x15, 0xa4, 0x3e, 0x8a, 0xf8, 0x17, 0xbe, 0x5a, 0x55, 0x90, 0x3e,
  0x08, 0xae, 0x9a, 0x3c, 0xd7, 0xae, 0xc1, 0x3d, 0xbb, 0x7c, 0x8b, 0xbd,
  0xa3, 0x37, 0xe2, 0xbe, 0x94, 0xc5, 0xb3, 0x3e, 0x94, 0x20, 0x3c, 0xbe,
  0xbf, 0x20, 0xb6, 0x3e, 0xdb, 0xaa, 0x57, 0x3d, 0x9b, 0xe1, 0x17, 0x3e,
  0x84, 0x9d, 0xba, 0x3d, 0x1c, 0x2e, 0xda, 0x3d, 0x32, 0x69, 0xea, 0x3d,
  0x6f, 0xde, 0xa7, 0x3e, 0xa6, 0xa1, 0x6e, 0xbe, 0x52, 0x85, 0x15, 0xbd,
  0x7d, 0x5e, 0xf8, 0x3e, 0x19, 0xc3, 0x9e, 0x3d, 0x64, 0x50, 0xf9, 0x3b,
  0xeb, 0xf7, 0x81, 0x3c, 0x16, 0xf0, 0xbd, 0xbe, 0x5c, 0xf4, 0x03, 0xbd,
  0xfd, 0xb2, 0xc3, 0xbe, 0xd4, 0x14, 0x59, 0x3d, 0xcd, 0xf1, 0x7b, 0x3e,
  0x60, 0x67, 0x76, 0xbe, 0x67, 0x9f, 0x2a, 0xba, 0x60, 0xc3, 0xc0, 0xbc,
  0x8b, 0x29, 0x33, 0xbe, 0x1a, 0x6d, 0xfe, 0x3e, 0xf2, 0x73, 0x1b, 0xbf,
  0x0c, 0x94, 0x0a, 0x3e, 0xf7, 0x2d, 0x03, 0x3f, 0x33, 0xf8, 0xeb, 0xbc,
  0xef, 0x67, 0xd5, 0x3e, 0xc7, 0x64, 0x31, 0xbe, 0xc1, 0xac, 0x30, 0xbf,
  0xa1, 0x94, 0x93, 0xbe, 0xa8, 0xdb, 0x33, 0xbf, 0x90, 0x01, 0x2d, 0xbd,
  0x64, 0x0a, 0x8e, 0x3d, 0x03, 0x21, 0x8b, 0xbe, 0x3d, 0xa3, 0x28, 0xbd,
  0xce, 0x88, 0x04, 0x3d, 0x78, 0x18, 0x77, 0xbe, 0xc8, 0x85, 0x3a, 0xbd,
  0x9c, 0x5a, 0x10, 0xbf, 0x1c, 0x0f, 0xc1, 0x3d, 0xcc, 0xe1, 0x62, 0x3e,
  0xd9, 0x6f, 0x26, 0x3d, 0x62, 0x2e, 0x15, 0xbe, 0x56, 0x3b, 0xc1, 0xbd,
  0x92, 0x61, 0x4d, 0xbd, 0xcf, 0x82, 0xc0, 0xbd, 0x86, 0xe6, 0x6e, 0xbe,
  0x7d, 0x51, 0x07, 0x3d, 0x36, 0xa7, 0xc2, 0xbe, 0xce, 0xf6, 0xdb, 0x3d,
  0xa7, 0x4d, 0xab, 0xbd, 0x7d, 0xd3, 0xe4, 0xbd, 0x01, 0xf3, 0x32, 0x3c,
  0x91, 0xb8, 0x7e, 0x3a, 0xf3, 0xc0, 0x2a, 0x3d, 0x1b, 0x3b, 0x7f, 0xbd,
  0x11, 0xd1, 0xd2, 0x3d, 0xfd, 0x8a, 0x77, 0xbd, 0xb9, 0x9f, 0x66, 0x3d,
  0xc8, 0xe6, 0x7f, 0xbe, 0x21, 0xfc, 0x0e, 0xbe, 0x58, 0x90, 0x13, 0xbe,
  0x7c, 0x49, 0x81, 0xbd, 0x2b, 0x1a, 0x8b, 0xbe, 0x62, 0xbb, 0xfc, 0x3c,
  0x7f, 0xc4, 0x18, 0x3e, 0xa6, 0x44, 0x99, 0xbe, 0x85, 0x73, 0x51, 0xbe,
  0x39, 0x4f, 0x55, 0x3e, 0xdb, 0x52, 0x9e, 0x3c, 0x1f, 0x18, 0x31, 0xbe,
  0x82, 0x5c, 0xa2, 0xbd, 0xe0, 0x80, 0xf2, 0xbd, 0x3e, 0x36, 0x10, 0x3d,
  0x55, 0x41, 0xbc, 0x3d, 0x0e, 0xb0, 0x56, 0xbd, 0x30, 0x04, 0x12, 0xbd,
  0xe5, 0xba, 0x1d, 0x3e, 0xea, 0x1b, 0xda, 0x3d, 0x46, 0xfd, 0x98, 0xbd,
  0xcb, 0x61, 0x20, 0x3d, 0x6d, 0x9b, 0x1b, 0x3e, 0x26, 0x55, 0x74, 0x3d,
  0x59, 0x78, 0x38, 0xbe, 0xeb, 0x83, 0x21, 0xbe, 0x00, 0xa4, 0x8d, 0xbc,
  0xa9, 0x45, 0x0a, 0x3e, 0xed, 0x71, 0x24, 0xbd, 0xd5, 0x72, 0x34, 0x3b,
  0xe5, 0xdb, 0xc7, 0xbe, 0xe9, 0x09, 0x2c, 0x3e, 0x49, 0xa3, 0xbf, 0xbc,
  0xc0, 0x1b, 0xe8, 0x3d, 0x6a, 0xe3, 0xa1, 0xbd, 0x96, 0x98, 0xe0, 0x3d,
  0xb9, 0x59, 0x14, 0x3c, 0x75, 0x62, 0x11, 0x3d, 0x53, 0xe8, 0xb7, 0xbd,
  0xb4, 0x9f, 0x09, 0xbd, 0x3b, 0xe0, 0x29, 0x3e, 0xde, 0xcc, 0xd3, 0xbd,
  0x3a, 0x90, 0x39, 0x3e, 0x14, 0x02, 0xf5, 0xbd, 0xdb, 0xcb, 0x05, 0x3b,
  0x52, 0xca, 0x3e, 0xbd, 0x57, 0xd1, 0xa2, 0x3a, 0xde, 0x5a, 0xa6, 0x3d,
  0x3f, 0xae, 0x8a, 0xbd, 0xe9, 0x3c, 0x74, 0xbc, 0x42, 0x32, 0x25, 0xbe,
  0x45, 0xe8, 0x4f, 0xbe, 0x8f, 0x41, 0x29, 0xbe, 0x50, 0xfa, 0x30, 0xbe,
  0x6e, 0xdd, 0x45, 0xbe, 0x41, 0x86, 0x5e, 0xbe, 0xbc, 0xda, 0xd1, 0xbd,
  0xfc, 0xea, 0x37, 0x3d, 0xd6, 0x02, 0x25, 0x3e, 0xe2, 0xa0, 0x70, 0xbe,
  0x11, 0x9e, 0xeb, 0xbd, 0xb0, 0x41, 0x2b, 0xbe, 0x9c, 0x40, 0xdc, 0xbc,
  0x21, 0x94, 0x77, 0x3e, 0x3b, 0xb2, 0x12, 0xbe, 0xa7, 0x17, 0x19, 0x3d,
  0x23, 0xbf, 0xf6, 0xbd, 0x27, 0x8d, 0x7d, 0xbe, 0xd9, 0xa9, 0x4b, 0xbe,
  0xbb, 0xdd, 0xb5, 0xbd, 0xe9, 0x10, 0x0f, 0xbe, 0x14, 0x9d, 0x9f, 0xbd,
  0x81, 0xc8, 0x8e, 0xbd, 0xfa, 0x3f, 0x53, 0x3d, 0x3b, 0xa1, 0x81, 0x3e,
  0x6c, 0x3e, 0x46, 0x3c, 0xde, 0x58, 0x15, 0xbe, 0xac, 0x7b, 0x8d, 0xbc,
  0xee, 0xa6, 0xbd, 0x3d, 0x4d, 0x53, 0xf9, 0xbd, 0x27, 0x63, 0x36, 0x3d,
  0xfa, 0x27, 0x67, 0x3d, 0x56, 0x7c, 0x42, 0xbe, 0x4b, 0x03, 0x8c, 0xbe,
  0x23, 0x74, 0x90, 0xbd, 0x83, 0xca, 0x88, 0xbd, 0x2a, 0x8f, 0xac, 0x3d,
  0x1e, 0x16, 0x98, 0xbe, 0x0f, 0x7e, 0xed, 0xbd, 0x18, 0x54, 0xbd, 0xbc,
  0xe7, 0xd8, 0x05, 0xbe, 0xe6, 0xd8, 0xf3, 0xbc, 0x46, 0x19, 0x5d, 0xbd,
  0x10, 0x76, 0x86, 0x3d, 0x4c, 0x6c, 0x1e, 0x3e, 0xcd, 0x26, 0xb7, 0x3e,
  0xc4, 0x97, 0x23, 0xbe, 0xc4, 0xcd, 0xe4, 0xbb, 0xf2, 0x97, 0x64, 0x3d,
  0x35, 0xe7, 0x54, 0xbd, 0x3f, 0x0b, 0x04, 0xbe, 0x4a, 0xfe, 0xff, 0xff,
  0x10, 0x00, 0x00, 0x00, 0x05, 0x00, 0x00, 0x00, 0x14, 0x00, 0x00, 0x00,
  0x2c, 0x00, 0x00, 0x00, 0x02, 0x00, 0x00, 0x00, 0x10, 0x00, 0x00, 0x00,
  0x70, 0x00, 0x00, 0x00, 0x17, 0x00, 0x00, 0x00, 0x73, 0x65, 0x71, 0x75,
  0x65, 0x6e, 0x74, 0x69, 0x61, 0x6c, 0x2f, 0x64, 0x65, 0x6e, 0x73, 0x65,
  0x2f, 0x4d, 0x61, 0x74, 0x4d, 0x75, 0x6c, 0x00, 0x38, 0xfe, 0xff, 0xff,
  0x2e, 0xff, 0xff, 0xff, 0x04, 0x00, 0x00, 0x00, 0x08, 0x00, 0x00, 0x00,
  0xff, 0xff, 0xff, 0xff, 0x70, 0x00, 0x00, 0x00, 0x00, 0x00, 0x0e, 0x00,
  0x18, 0x00, 0x08, 0x00, 0x07, 0x00, 0x0c, 0x00, 0x10, 0x00, 0x14, 0x00,
  0x0e, 0x00, 0x00, 0x00, 0x00, 0x00, 0x00, 0x02, 0x10, 0x00, 0x00, 0x00,
  0x04, 0x00, 0x00, 0x00, 0x10, 0x00, 0x00, 0x00, 0x2c, 0x00, 0x00, 0x00,
  0x01, 0x00, 0x00, 0x00, 0x02, 0x00, 0x00, 0x00, 0x18, 0x00, 0x00, 0x00,
  0x73, 0x65, 0x71, 0x75, 0x65, 0x6e, 0x74, 0x69, 0x61, 0x6c, 0x2f, 0x66,
  0x6c, 0x61, 0x74, 0x74, 0x65, 0x6e, 0x2f, 0x43, 0x6f, 0x6e, 0x73, 0x74,
  0x00, 0x00, 0x00, 0x00, 0xa0, 0xfe, 0xff, 0xff, 0x96, 0xff, 0xff, 0xff,
  0x04, 0x00, 0x00, 0x00, 0x0c, 0x00, 0x00, 0x00, 0xb8, 0xd4, 0x89, 0x3f,
  0xae, 0xbb, 0x9f, 0xbf, 0xf1, 0xa8, 0xe4, 0xbe, 0x0a, 0xff, 0xff, 0xff,
  0x10, 0x00, 0x00, 0x00, 0x03, 0x00, 0x00, 0x00, 0x10, 0x00, 0x00, 0x00,
  0x3c, 0x00, 0x00, 0x00, 0x01, 0x00, 0x00, 0x00, 0x03, 0x00, 0x00, 0x00,
  0x29, 0x00, 0x00, 0x00, 0x73, 0x65, 0x71, 0x75, 0x65, 0x6e, 0x74, 0x69,
  0x61, 0x6c, 0x2f, 0x64, 0x65, 0x6e, 0x73, 0x65, 0x5f, 0x31, 0x2f, 0x42,
  0x69, 0x61, 0x73, 0x41, 0x64, 0x64, 0x2f, 0x52, 0x65, 0x61, 0x64, 0x56,
  0x61, 0x72, 0x69, 0x61, 0x62, 0x6c, 0x65, 0x4f, 0x70, 0x00, 0x00, 0x00,
  0x60, 0xff, 0xff, 0xff, 0x00, 0x00, 0x06, 0x00, 0x08, 0x00, 0x04, 0x00,
  0x06, 0x00, 0x00, 0x00, 0x04, 0x00, 0x00, 0x00, 0x40, 0x00, 0x00, 0x00,
  0x16, 0x07, 0xde, 0xbf, 0xd1, 0x74, 0x0e, 0x40, 0x45, 0xd1, 0x48, 0xbe,
  0x6b, 0x0e, 0xdf, 0xbf, 0x1e, 0x6b, 0xa4, 0xbd, 0x83, 0x13, 0xd1, 0xbe,
  0x31, 0x20, 0x73, 0xbe, 0xdb, 0x1a, 0x05, 0x40, 0xbc, 0xe1, 0x35, 0xbf,
  0xb9, 0x72, 0x0c, 0xbf, 0xa3, 0xa6, 0x02, 0xbf, 0x3b, 0xaf, 0xe0, 0xbe,
  0x38, 0xee, 0x35, 0x40, 0xc3, 0x2f, 0x99, 0xbf, 0x97, 0xe5, 0x81, 0xbf,
  0x76, 0x7b, 0x27, 0x3e, 0xae, 0xff, 0xff, 0xff, 0x10, 0x00, 0x00, 0x00,
  0x02, 0x00, 0x00, 0x00, 0x10, 0x00, 0x00, 0x00, 0x3c, 0x00, 0x00, 0x00,
  0x01, 0x00, 0x00, 0x00, 0x10, 0x00, 0x00, 0x00, 0x27, 0x00, 0x00, 0x00,
  0x73, 0x65, 0x71, 0x75, 0x65, 0x6e, 0x74, 0x69, 0x61, 0x6c, 0x2f, 0x64,
  0x65, 0x6e, 0x73, 0x65, 0x2f, 0x42, 0x69, 0x61, 0x73, 0x41, 0x64, 0x64,
  0x2f, 0x52, 0x65, 0x61, 0x64, 0x56, 0x61, 0x72, 0x69, 0x61, 0x62, 0x6c,
  0x65, 0x4f, 0x70, 0x00, 0x04, 0x00, 0x06, 0x00, 0x04, 0x00, 0x00, 0x00,
  0x00, 0x00, 0x0e, 0x00, 0x14, 0x00, 0x04, 0x00, 0x00, 0x00, 0x08, 0x00,
  0x0c, 0x00, 0x10, 0x00, 0x0e, 0x00, 0x00, 0x00, 0x10, 0x00, 0x00, 0x00,
  0x01, 0x00, 0x00, 0x00, 0x1c, 0x00, 0x00, 0x00, 0x2c, 0x00, 0x00, 0x00,
  0x04, 0x00, 0x00, 0x00, 0x01, 0x00, 0x00, 0x00, 0x40, 0x00, 0x00, 0x00,
  0x03, 0x00, 0x00, 0x00, 0x01, 0x00, 0x00, 0x00, 0x0c, 0x00, 0x00, 0x00,
  0x63, 0x6f, 0x6e, 0x76, 0x32, 0x64, 0x5f, 0x69, 0x6e, 0x70, 0x75, 0x74,
  0x00, 0x00, 0x00, 0x00, 0xfc, 0xff, 0xff, 0xff, 0x04, 0x00, 0x04, 0x00,
  0x04, 0x00, 0x00, 0x00
};
unsigned int _content_midterm_model_model_tflite_len = 12316;